{
  "version": "1.0",
  "truncation": null,
  "padding": null,
  "added_tokens": [
    {
      "id": 0,
      "content": "[PAD]",
      "single_word": false,
      "lstrip": false,
      "rstrip": false,
      "normalized": false,
      "special": true
    },
    {
      "id": 1,
      "content": "[UNK]",
      "single_word": false,
      "lstrip": false,
      "rstrip": false,
      "normalized": false,
      "special": true
    },
    {
      "id": 2,
      "content": "[EOS]",
      "single_word": false,
      "lstrip": false,
      "rstrip": false,
      "normalized": false,
      "special": true
    },
    {
      "id": 3,
      "content": "[SEP]",
      "single_word": false,
      "lstrip": false,
      "rstrip": false,
      "normalized": false,
      "special": true
    }
  ],
  "normalizer": null,
  "pre_tokenizer": {
    "type": "Whitespace"
  },
  "post_processor": null,
  "decoder": null,
  "model": {
    "type": "BPE",
    "dropout": null,
    "unk_token": null,
    "continuing_subword_prefix": null,
    "end_of_word_suffix": null,
    "fuse_unk": false,
    "vocab": {
      "[PAD]": 0,
      "[UNK]": 1,
      "[EOS]": 2,
      "[SEP]": 3,
      "!": 4,
      "$": 5,
      "'": 6,
      ",": 7,
      "-": 8,
      ".": 9,
      ";": 10,
      "?": 11,
      "@": 12,
      "A": 13,
      "B": 14,
      "C": 15,
      "D": 16,
      "E": 17,
      "F": 18,
      "G": 19,
      "H": 20,
      "I": 21,
      "J": 22,
      "K": 23,
      "L": 24,
      "M": 25,
      "N": 26,
      "O": 27,
      "P": 28,
      "Q": 29,
      "R": 30,
      "S": 31,
      "T": 32,
      "U": 33,
      "V": 34,
      "W": 35,
      "X": 36,
      "Y": 37,
      "Z": 38,
      "[": 39,
      "]": 40,
      "a": 41,
      "b": 42,
      "c": 43,
      "d": 44,
      "e": 45,
      "f": 46,
      "g": 47,
      "h": 48,
      "i": 49,
      "j": 50,
      "k": 51,
      "l": 52,
      "m": 53,
      "n": 54,
      "o": 55,
      "p": 56,
      "q": 57,
      "r": 58,
      "s": 59,
      "t": 60,
      "u": 61,
      "v": 62,
      "w": 63,
      "x": 64,
      "y": 65,
      "z": 66,
      "Ì": 67,
      "á": 68,
      "è": 69,
      "é": 70,
      "ñ": 71,
      "ó": 72,
      "ö": 73,
      "ú": 74,
      "⇗": 75,
      "≈": 76,
      "≠": 77,
      "EO": 78,
      "EOS": 79,
      ".[": 80,
      "CA": 81,
      "CAR": 82,
      "th": 83,
      "CH": 84,
      "CHI": 85,
      "ou": 86,
      "in": 87,
      "the": 88,
      "?[": 89,
      "re": 90,
      "an": 91,
      "at": 92,
      "you": 93,
      "it": 94,
      "on": 95,
      "he": 96,
      "is": 97,
      "ing": 98,
      "no": 99,
      "ll": 100,
      "to": 101,
      "wh": 102,
      "se": 103,
      "ve": 104,
      "that": 105,
      "and": 106,
      "me": 107,
      "we": 108,
      "do": 109,
      "go": 110,
      "le": 111,
      "ye": 112,
      "ha": 113,
      "what": 114,
      "ay": 115,
      "st": 116,
      "ke": 117,
      "be": 118,
      "or": 119,
      "ar": 120,
      "oo": 121,
      "ig": 122,
      "er": 123,
      "as": 124,
      "one": 125,
      "oh": 126,
      "ut": 127,
      "ho": 128,
      "this": 129,
      "id": 130,
      "so": 131,
      "ic": 132,
      "there": 133,
      "here": 134,
      "ah": 135,
      "ht": 136,
      "my": 137,
      "es": 138,
      "all": 139,
      "are": 140,
      "en": 141,
      "ad": 142,
      "li": 143,
      "now": 144,
      "of": 145,
      "can": 146,
      "yeah": 147,
      "ight": 148,
      "um": 149,
      "have": 150,
      "ook": 151,
      "ge": 152,
      "ld": 153,
      "don": 154,
      "yes": 155,
      "co": 156,
      "ed": 157,
      "ck": 158,
      "wan": 159,
      "ir": 160,
      "wi": 161,
      "your": 162,
      "like": 163,
      "ro": 164,
      "ink": 165,
      "they": 166,
      "up": 167,
      "ry": 168,
      "ch": 169,
      "some": 170,
      "look": 171,
      "going": 172,
      "right": 173,
      "out": 174,
      "ba": 175,
      "lo": 176,
      "na": 177,
      "al": 178,
      "put": 179,
      "ra": 180,
      "ok": 181,
      "not": 182,
      "ca": 183,
      "did": 184,
      "okay": 185,
      "bo": 186,
      "ust": 187,
      "she": 188,
      "ne": 189,
      "for": 190,
      "think": 191,
      "see": 192,
      "ould": 193,
      "get": 194,
      "with": 195,
      "got": 196,
      "was": 197,
      "mo": 198,
      "use": 199,
      "where": 200,
      "uh": 201,
      "ie": 202,
      "ta": 203,
      "un": 204,
      "ma": 205,
      "itt": 206,
      "ur": 207,
      "know": 208,
      "just": 209,
      "want": 210,
      "dy": 211,
      "well": 212,
      "pl": 213,
      "mas": 214,
      "ther": 215,
      "po": 216,
      "wn": 217,
      "let": 218,
      "but": 219,
      "us": 220,
      "ice": 221,
      "pe": 222,
      "cause": 223,
      "ittle": 224,
      "little": 225,
      "thing": 226,
      "![": 227,
      "because": 228,
      "if": 229,
      "ter": 230,
      "whe": 231,
      "does": 232,
      "them": 233,
      "hm": 234,
      "ly": 235,
      "te": 236,
      "ple": 237,
      "Tho": 238,
      "Thomas": 239,
      "ummy": 240,
      "then": 241,
      "big": 242,
      "wanna": 243,
      "ver": 244,
      "has": 245,
      "say": 246,
      "sa": 247,
      "come": 248,
      "ti": 249,
      "when": 250,
      "od": 251,
      "her": 252,
      "down": 253,
      "wo": 254,
      "who": 255,
      "how": 256,
      "ce": 257,
      "ri": 258,
      "very": 259,
      "other": 260,
      "pp": 261,
      "oun": 262,
      "car": 263,
      "sh": 264,
      "man": 265,
      "good": 266,
      "ep": 267,
      "im": 268,
      "eat": 269,
      "addy": 270,
      "day": 271,
      "pa": 272,
      "ick": 273,
      "ind": 274,
      "ab": 275,
      "fe": 276,
      "more": 277,
      "ide": 278,
      "would": 279,
      "why": 280,
      "oug": 281,
      "Mummy": 282,
      "way": 283,
      "play": 284,
      "uck": 285,
      "ound": 286,
      "two": 287,
      "by": 288,
      "ts": 289,
      "back": 290,
      "ue": 291,
      "la": 292,
      "om": 293,
      "ine": 294,
      "fi": 295,
      "Nin": 296,
      "need": 297,
      "his": 298,
      "ty": 299,
      "el": 300,
      "too": 301,
      "make": 302,
      "ber": 303,
      "bit": 304,
      "read": 305,
      "mhm": 306,
      "am": 307,
      "about": 308,
      "ally": 309,
      "off": 310,
      "ear": 311,
      "these": 312,
      "wat": 313,
      "il": 314,
      "ps": 315,
      "nice": 316,
      "che": 317,
      "red": 318,
      "huh": 319,
      "nt": 320,
      "tr": 321,
      "sha": 322,
      "ill": 323,
      "isn": 324,
      "ose": 325,
      "ga": 326,
      "Mom": 327,
      "didn": 328,
      "doing": 329,
      "ase": 330,
      "than": 331,
      "par": 332,
      "tra": 333,
      "those": 334,
      "time": 335,
      "were": 336,
      "could": 337,
      "our": 338,
      "king": 339,
      "any": 340,
      "ouse": 341,
      "qu": 342,
      "Daddy": 343,
      "him": 344,
      "bu": 345,
      "please": 346,
      "had": 347,
      "bl": 348,
      "ree": 349,
      "take": 350,
      "baby": 351,
      "llo": 352,
      "br": 353,
      "over": 354,
      "side": 355,
      "tu": 356,
      "pen": 357,
      "ite": 358,
      "ble": 359,
      "ong": 360,
      "mm": 361,
      "per": 362,
      "ting": 363,
      "fro": 364,
      "will": 365,
      "ough": 366,
      "fa": 367,
      "hair": 368,
      "pre": 369,
      "ss": 370,
      "sto": 371,
      "sho": 372,
      "col": 373,
      "another": 374,
      "fire": 375,
      "boy": 376,
      "wor": 377,
      "house": 378,
      "doesn": 379,
      "blue": 380,
      "something": 381,
      "call": 382,
      "ate": 383,
      "book": 384,
      "Mommy": 385,
      "thank": 386,
      "der": 387,
      "wee": 388,
      "ish": 389,
      "aga": 390,
      "again": 391,
      "sit": 392,
      "cat": 393,
      "really": 394,
      "happ": 395,
      "from": 396,
      "ump": 397,
      "truck": 398,
      "clo": 399,
      "tell": 400,
      "shall": 401,
      "choo": 402,
      "wa": 403,
      "gi": 404,
      "hel": 405,
      "die": 406,
      "gre": 407,
      "ten": 408,
      "train": 409,
      "ang": 410,
      "dear": 411,
      "name": 412,
      "orn": 413,
      "water": 414,
      "cle": 415,
      "su": 416,
      "box": 417,
      "flo": 418,
      "mber": 419,
      "said": 420,
      "else": 421,
      "ac": 422,
      "ard": 423,
      "Pur": 424,
      "gone": 425,
      "done": 426,
      "Purdie": 427,
      "ph": 428,
      "hand": 429,
      "foo": 430,
      "ball": 431,
      "reme": 432,
      "ving": 433,
      "leep": 434,
      "ny": 435,
      "ies": 436,
      "ush": 437,
      "tur": 438,
      "round": 439,
      "irst": 440,
      "row": 441,
      "remember": 442,
      "bet": 443,
      "dr": 444,
      "pic": 445,
      "won": 446,
      "cr": 447,
      "ange": 448,
      "things": 449,
      "mean": 450,
      "should": 451,
      "ul": 452,
      "open": 453,
      "bir": 454,
      "three": 455,
      "green": 456,
      "rand": 457,
      "rea": 458,
      "com": 459,
      "gir": 460,
      "called": 461,
      "help": 462,
      "away": 463,
      "daddy": 464,
      "tal": 465,
      "hor": 466,
      "aren": 467,
      "af": 468,
      "ought": 469,
      "gg": 470,
      "give": 471,
      "cho": 472,
      "goes": 473,
      "ked": 474,
      "raw": 475,
      "alright": 476,
      "ild": 477,
      "ap": 478,
      "body": 479,
      "color": 480,
      "arm": 481,
      "ich": 482,
      "looks": 483,
      "bye": 484,
      "may": 485,
      "went": 486,
      "pie": 487,
      "happen": 488,
      "lot": 489,
      "ile": 490,
      "bed": 491,
      "bro": 492,
      "oom": 493,
      "dri": 494,
      "mom": 495,
      "haven": 496,
      "lly": 497,
      "uhhuh": 498,
      "llow": 499,
      "try": 500,
      "turn": 501,
      "ket": 502,
      "chair": 503,
      "ven": 504,
      "fo": 505,
      "sta": 506,
      "bus": 507,
      "rs": 508,
      "head": 509,
      "girl": 510,
      "unny": 511,
      "find": 512,
      "ture": 513,
      "kind": 514,
      "sleep": 515,
      "watch": 516,
      "ken": 517,
      "door": 518,
      "bear": 519,
      "into": 520,
      "love": 521,
      "yellow": 522,
      "de": 523,
      "peo": 524,
      "people": 525,
      "sor": 526,
      "fall": 527,
      "ug": 528,
      "hold": 529,
      "picture": 530,
      "Po": 531,
      "art": 532,
      "ris": 533,
      "been": 534,
      "drink": 535,
      "sp": 536,
      "ara": 537,
      "might": 538,
      "ster": 539,
      "ready": 540,
      "ju": 541,
      "oney": 542,
      "night": 543,
      "maybe": 544,
      "hat": 545,
      "gu": 546,
      "Grand": 547,
      "chee": 548,
      "fin": 549,
      "long": 550,
      "says": 551,
      "better": 552,
      "today": 553,
      "bag": 554,
      "bin": 555,
      "pot": 556,
      "hello": 557,
      "ade": 558,
      "mu": 559,
      "cup": 560,
      "home": 561,
      "lad": 562,
      "tea": 563,
      "hur": 564,
      "brea": 565,
      "hey": 566,
      "ex": 567,
      "swee": 568,
      "cut": 569,
      "mil": 570,
      "which": 571,
      "ys": 572,
      "wash": 573,
      "Amy": 574,
      "ru": 575,
      "juice": 576,
      "cre": 577,
      "min": 578,
      "ds": 579,
      "work": 580,
      "coming": 581,
      "care": 582,
      "ix": 583,
      "every": 584,
      "iss": 585,
      "pu": 586,
      "ger": 587,
      "lf": 588,
      "pro": 589,
      "milk": 590,
      "top": 591,
      "cow": 592,
      "oops": 593,
      "saw": 594,
      "wal": 595,
      "ant": 596,
      "hed": 597,
      "Ch": 598,
      "ones": 599,
      "table": 600,
      "four": 601,
      "ion": 602,
      "first": 603,
      "must": 604,
      "break": 605,
      "ip": 606,
      "new": 607,
      "dog": 608,
      "after": 609,
      "mon": 610,
      "apple": 611,
      "still": 612,
      "tle": 613,
      "har": 614,
      "gine": 615,
      "ob": 616,
      "ste": 617,
      "orange": 618,
      "tom": 619,
      "outside": 620,
      "pardon": 621,
      "ow": 622,
      "keep": 623,
      "imal": 624,
      "tor": 625,
      "animal": 626,
      "ise": 627,
      "pig": 628,
      "minut": 629,
      "Lara": 630,
      "ful": 631,
      "fore": 632,
      "ess": 633,
      "poo": 634,
      "horse": 635,
      "room": 636,
      "cook": 637,
      "ft": 638,
      "ers": 639,
      "cheese": 640,
      "floor": 641,
      "illy": 642,
      "bot": 643,
      "nex": 644,
      "sure": 645,
      "next": 646,
      "wait": 647,
      "food": 648,
      "cake": 649,
      "lots": 650,
      "pla": 651,
      "lea": 652,
      "las": 653,
      "show": 654,
      "under": 655,
      "fish": 656,
      "light": 657,
      "nose": 658,
      "spo": 659,
      "white": 660,
      "dar": 661,
      "morn": 662,
      "made": 663,
      "paper": 664,
      "morning": 665,
      "ton": 666,
      "only": 667,
      "rough": 668,
      "et": 669,
      "much": 670,
      "funny": 671,
      "pick": 672,
      "pped": 673,
      "mommy": 674,
      "sna": 675,
      "win": 676,
      "unch": 677,
      "yup": 678,
      "mummy": 679,
      "stop": 680,
      "before": 681,
      "getting": 682,
      "thought": 683,
      "their": 684,
      "ff": 685,
      "eating": 686,
      "fast": 687,
      "ky": 688,
      "saying": 689,
      "ling": 690,
      "stick": 691,
      "looking": 692,
      "mou": 693,
      "ring": 694,
      "letter": 695,
      "happened": 696,
      "key": 697,
      "chocol": 698,
      "piece": 699,
      "ted": 700,
      "came": 701,
      "ele": 702,
      "Chris": 703,
      "blo": 704,
      "having": 705,
      "wear": 706,
      "thday": 707,
      "through": 708,
      "sm": 709,
      "playing": 710,
      "hot": 711,
      "making": 712,
      "cream": 713,
      "wer": 714,
      "birthday": 715,
      "wasn": 716,
      "chool": 717,
      "les": 718,
      "sed": 719,
      "pret": 720,
      "around": 721,
      "lack": 722,
      "con": 723,
      "din": 724,
      "school": 725,
      "old": 726,
      "actu": 727,
      "ooh": 728,
      "quite": 729,
      "hear": 730,
      "actually": 731,
      "five": 732,
      "sing": 733,
      "sand": 734,
      "silly": 735,
      "stand": 736,
      "leave": 737,
      "ins": 738,
      "mouth": 739,
      "bab": 740,
      "ash": 741,
      "talk": 742,
      "tree": 743,
      "gr": 744,
      "eyes": 745,
      "woo": 746,
      "men": 747,
      "rab": 748,
      "draw": 749,
      "tie": 750,
      "zz": 751,
      "hurt": 752,
      "cu": 753,
      "mat": 754,
      "shoes": 755,
      "black": 756,
      "lor": 757,
      "roll": 758,
      "ane": 759,
      "wr": 760,
      "engine": 761,
      "post": 762,
      "minute": 763,
      "icken": 764,
      "bow": 765,
      "bang": 766,
      "last": 767,
      "clean": 768,
      "cks": 769,
      "mer": 770,
      "shop": 771,
      "bread": 772,
      "putting": 773,
      "end": 774,
      "lat": 775,
      "run": 776,
      "jump": 777,
      "foot": 778,
      "ctor": 779,
      "fr": 780,
      "chocolate": 781,
      "mine": 782,
      "pretty": 783,
      "fing": 784,
      "chicken": 785,
      "bb": 786,
      "dad": 787,
      "ana": 788,
      "ya": 789,
      "animals": 790,
      "tend": 791,
      "duck": 792,
      "tmas": 793,
      "many": 794,
      "lady": 795,
      "dif": 796,
      "pop": 797,
      "dro": 798,
      "hands": 799,
      "dre": 800,
      "though": 801,
      "pull": 802,
      "hard": 803,
      "squ": 804,
      "ato": 805,
      "bar": 806,
      "ast": 807,
      "irs": 808,
      "inside": 809,
      "Christmas": 810,
      "pretend": 811,
      "phone": 812,
      "umber": 813,
      "itting": 814,
      "careful": 815,
      "Dad": 816,
      "pain": 817,
      "six": 818,
      "build": 819,
      "bath": 820,
      "somebody": 821,
      "move": 822,
      "live": 823,
      "lorry": 824,
      "noise": 825,
      "story": 826,
      "dust": 827,
      "real": 828,
      "stairs": 829,
      "fere": 830,
      "brush": 831,
      "cro": 832,
      "ker": 833,
      "differe": 834,
      "eh": 835,
      "toge": 836,
      "mar": 837,
      "egg": 838,
      "fly": 839,
      "together": 840,
      "yep": 841,
      "self": 842,
      "air": 843,
      "fit": 844,
      "dow": 845,
      "while": 846,
      "poor": 847,
      "age": 848,
      "number": 849,
      "wants": 850,
      "pol": 851,
      "stay": 852,
      "anything": 853,
      "Ma": 854,
      "different": 855,
      "ished": 856,
      "feel": 857,
      "sound": 858,
      "uss": 859,
      "dig": 860,
      "cold": 861,
      "throw": 862,
      "dle": 863,
      "tape": 864,
      "part": 865,
      "straw": 866,
      "nee": 867,
      "igh": 868,
      "pan": 869,
      "yet": 870,
      "bring": 871,
      "walk": 872,
      "rain": 873,
      "spe": 874,
      "glas": 875,
      "pink": 876,
      "ses": 877,
      "bea": 878,
      "ries": 879,
      "sie": 880,
      "irt": 881,
      "corn": 882,
      "boo": 883,
      "sitting": 884,
      "wing": 885,
      "wow": 886,
      "finished": 887,
      "sun": 888,
      "start": 889,
      "tee": 890,
      "talking": 891,
      "window": 892,
      "money": 893,
      "page": 894,
      "lis": 895,
      "Mar": 896,
      "comes": 897,
      "gra": 898,
      "rabbit": 899,
      "ips": 900,
      "mess": 901,
      "ught": 902,
      "toys": 903,
      "set": 904,
      "buy": 905,
      "tre": 906,
      "ons": 907,
      "sorry": 908,
      "breakfast": 909,
      "eleph": 910,
      "found": 911,
      "honey": 912,
      "butter": 913,
      "face": 914,
      "da": 915,
      "feet": 916,
      "irty": 917,
      "bi": 918,
      "times": 919,
      "quick": 920,
      "ouch": 921,
      "pes": 922,
      "sc": 923,
      "gs": 924,
      "hun": 925,
      "cry": 926,
      "wheel": 927,
      "uff": 928,
      "happy": 929,
      "lunch": 930,
      "ank": 931,
      "ces": 932,
      "sme": 933,
      "fell": 934,
      "seen": 935,
      "push": 936,
      "pur": 937,
      "fri": 938,
      "Grandma": 939,
      "near": 940,
      "seven": 941,
      "its": 942,
      "snake": 943,
      "hi": 944,
      "di": 945,
      "driver": 946,
      "ner": 947,
      "puss": 948,
      "close": 949,
      "listen": 950,
      "pping": 951,
      "bowl": 952,
      "beep": 953,
      "em": 954,
      "gar": 955,
      "lie": 956,
      "lid": 957,
      "nine": 958,
      "wouldn": 959,
      "plane": 960,
      "left": 961,
      "stuck": 962,
      "idge": 963,
      "ent": 964,
      "cor": 965,
      "bble": 966,
      "ren": 967,
      "police": 968,
      "fla": 969,
      "kno": 970,
      "later": 971,
      "mind": 972,
      "rac": 973,
      "wers": 974,
      "same": 975,
      "mb": 976,
      "boat": 977,
      "fix": 978,
      "teddy": 979,
      "bably": 980,
      "probably": 981,
      "bee": 982,
      "dustbin": 983,
      "sk": 984,
      "never": 985,
      "Ro": 986,
      "ment": 987,
      "ride": 988,
      "spoon": 989,
      "even": 990,
      "ever": 991,
      "Mum": 992,
      "far": 993,
      "First": 994,
      "cket": 995,
      "sheep": 996,
      "tired": 997,
      "teeth": 998,
      "Na": 999,
      "Firstname": 1000,
      "wet": 1001,
      "darling": 1002,
      "pump": 1003,
      "bird": 1004,
      "Pat": 1005,
      "toast": 1006,
      "being": 1007,
      "swi": 1008,
      "elephant": 1009,
      "smell": 1010,
      "dirty": 1011,
      "yum": 1012,
      "Ja": 1013,
      "brown": 1014,
      "ars": 1015,
      "pussy": 1016,
      "cli": 1017,
      "kiss": 1018,
      "bel": 1019,
      "touch": 1020,
      "ous": 1021,
      "kitt": 1022,
      "enough": 1023,
      "bottom": 1024,
      "sometimes": 1025,
      "broken": 1026,
      "tail": 1027,
      "op": 1028,
      "eight": 1029,
      "Abe": 1030,
      "ci": 1031,
      "cy": 1032,
      "ban": 1033,
      "ways": 1034,
      "hasn": 1035,
      "lovely": 1036,
      "saus": 1037,
      "flowers": 1038,
      "snow": 1039,
      "ont": 1040,
      "small": 1041,
      "ze": 1042,
      "fu": 1043,
      "hang": 1044,
      "cl": 1045,
      "board": 1046,
      "que": 1047,
      "dinner": 1048,
      "yours": 1049,
      "pumpk": 1050,
      "wel": 1051,
      "trying": 1052,
      "tummy": 1053,
      "clock": 1054,
      "strawber": 1055,
      "dogg": 1056,
      "farm": 1057,
      "bad": 1058,
      "letters": 1059,
      "plate": 1060,
      "ties": 1061,
      "front": 1062,
      "ning": 1063,
      "nur": 1064,
      "wanted": 1065,
      "needs": 1066,
      "matter": 1067,
      "pi": 1068,
      "drive": 1069,
      "bottle": 1070,
      "tin": 1071,
      "ass": 1072,
      "rid": 1073,
      "party": 1074,
      "ation": 1075,
      "coun": 1076,
      "Bob": 1077,
      "tele": 1078,
      "Post": 1079,
      "coo": 1080,
      "Aun": 1081,
      "doll": 1082,
      "ges": 1083,
      "button": 1084,
      "Postman": 1085,
      "ister": 1086,
      "toy": 1087,
      "couldn": 1088,
      "horsie": 1089,
      "always": 1090,
      "stuff": 1091,
      "ach": 1092,
      "nothing": 1093,
      "vor": 1094,
      "useta": 1095,
      "exc": 1096,
      "fun": 1097,
      "sl": 1098,
      "Be": 1099,
      "ct": 1100,
      "bought": 1101,
      "sup": 1102,
      "stic": 1103,
      "change": 1104,
      "jo": 1105,
      "je": 1106,
      "choc": 1107,
      "road": 1108,
      "carry": 1109,
      "itche": 1110,
      "kes": 1111,
      "orrow": 1112,
      "sandw": 1113,
      "bis": 1114,
      "job": 1115,
      "ima": 1116,
      "van": 1117,
      "rest": 1118,
      "finger": 1119,
      "biscu": 1120,
      "shirt": 1121,
      "uhoh": 1122,
      "mix": 1123,
      "bump": 1124,
      "omi": 1125,
      "prese": 1126,
      "tri": 1127,
      "ding": 1128,
      "both": 1129,
      "park": 1130,
      "shut": 1131,
      "yester": 1132,
      "ballo": 1133,
      "makes": 1134,
      "week": 1135,
      "yesterday": 1136,
      "bite": 1137,
      "tick": 1138,
      "Sue": 1139,
      "place": 1140,
      "high": 1141,
      "cars": 1142,
      "mus": 1143,
      "dolly": 1144,
      "ughty": 1145,
      "likes": 1146,
      "already": 1147,
      "bell": 1148,
      "child": 1149,
      "ort": 1150,
      "naughty": 1151,
      "thes": 1152,
      "upstairs": 1153,
      "guess": 1154,
      "trees": 1155,
      "Granddad": 1156,
      "ance": 1157,
      "carro": 1158,
      "wood": 1159,
      "trucks": 1160,
      "ears": 1161,
      "ache": 1162,
      "clothes": 1163,
      "finish": 1164,
      "Nana": 1165,
      "fireman": 1166,
      "hung": 1167,
      "mouse": 1168,
      "vis": 1169,
      "aw": 1170,
      "ipp": 1171,
      "sort": 1172,
      "ward": 1173,
      "arden": 1174,
      "tomorrow": 1175,
      "garden": 1176,
      "Nomi": 1177,
      "ily": 1178,
      "gotta": 1179,
      "most": 1180,
      "own": 1181,
      "song": 1182,
      "mes": 1183,
      "catch": 1184,
      "mach": 1185,
      "monkey": 1186,
      "feed": 1187,
      "dry": 1188,
      "cand": 1189,
      "ence": 1190,
      "knock": 1191,
      "digger": 1192,
      "wall": 1193,
      "ans": 1194,
      "glasses": 1195,
      "cer": 1196,
      "sn": 1197,
      "few": 1198,
      "fru": 1199,
      "washing": 1200,
      "grand": 1201,
      "beh": 1202,
      "able": 1203,
      "taking": 1204,
      "av": 1205,
      "behind": 1206,
      "pt": 1207,
      "hungry": 1208,
      "ei": 1209,
      "pieces": 1210,
      "wonder": 1211,
      "itchen": 1212,
      "kitchen": 1213,
      "loo": 1214,
      "yo": 1215,
      "zoo": 1216,
      "stead": 1217,
      "kitty": 1218,
      "guy": 1219,
      "kers": 1220,
      "wearing": 1221,
      "pet": 1222,
      "weren": 1223,
      "teen": 1224,
      "told": 1225,
      "books": 1226,
      "kn": 1227,
      "fruit": 1228,
      "step": 1229,
      "umb": 1230,
      "usu": 1231,
      "gave": 1232,
      "blow": 1233,
      "cookie": 1234,
      "sli": 1235,
      "lion": 1236,
      "yed": 1237,
      "cked": 1238,
      "bunny": 1239,
      "oup": 1240,
      "ask": 1241,
      "rubb": 1242,
      "haps": 1243,
      "favor": 1244,
      "til": 1245,
      "Sam": 1246,
      "bigger": 1247,
      "fee": 1248,
      "perhaps": 1249,
      "Bear": 1250,
      "pat": 1251,
      "dark": 1252,
      "ween": 1253,
      "meow": 1254,
      "spl": 1255,
      "football": 1256,
      "everything": 1257,
      "gets": 1258,
      "cial": 1259,
      "The": 1260,
      "doctor": 1261,
      "hole": 1262,
      "warm": 1263,
      "card": 1264,
      "wipe": 1265,
      "dress": 1266,
      "nurse": 1267,
      "eye": 1268,
      "lost": 1269,
      "everybody": 1270,
      "iger": 1271,
      "past": 1272,
      "paint": 1273,
      "Tom": 1274,
      "cris": 1275,
      "fence": 1276,
      "bas": 1277,
      "bur": 1278,
      "ls": 1279,
      "recor": 1280,
      "ham": 1281,
      "boys": 1282,
      "pants": 1283,
      "hid": 1284,
      "took": 1285,
      "sleeping": 1286,
      "wrong": 1287,
      "store": 1288,
      "barn": 1289,
      "special": 1290,
      "lla": 1291,
      "tain": 1292,
      "press": 1293,
      "nty": 1294,
      "wed": 1295,
      "beaut": 1296,
      "yourself": 1297,
      "cross": 1298,
      "machine": 1299,
      "py": 1300,
      "str": 1301,
      "thanks": 1302,
      "An": 1303,
      "pee": 1304,
      "bags": 1305,
      "cir": 1306,
      "unk": 1307,
      "dropped": 1308,
      "favorite": 1309,
      "cof": 1310,
      "until": 1311,
      "potty": 1312,
      "busy": 1313,
      "rubbish": 1314,
      "ddle": 1315,
      "grow": 1316,
      "Bow": 1317,
      "crying": 1318,
      "holding": 1319,
      "coffee": 1320,
      "ack": 1321,
      "tractor": 1322,
      "lights": 1323,
      "hes": 1324,
      "pictures": 1325,
      "Jo": 1326,
      "either": 1327,
      "usually": 1328,
      "beautif": 1329,
      "He": 1330,
      "eggs": 1331,
      "Nina": 1332,
      "dra": 1333,
      "means": 1334,
      "sausage": 1335,
      "icks": 1336,
      "flower": 1337,
      "banana": 1338,
      "children": 1339,
      "soon": 1340,
      "inky": 1341,
      "idea": 1342,
      "friend": 1343,
      "ia": 1344,
      "forgot": 1345,
      "doggy": 1346,
      "nie": 1347,
      "ran": 1348,
      "sounds": 1349,
      "moo": 1350,
      "mum": 1351,
      "purple": 1352,
      "hit": 1353,
      "whoops": 1354,
      "roo": 1355,
      "ator": 1356,
      "ids": 1357,
      "beautiful": 1358,
      "socks": 1359,
      "legs": 1360,
      "ire": 1361,
      "gosh": 1362,
      "trains": 1363,
      "cha": 1364,
      "isy": 1365,
      "napp": 1366,
      "poorly": 1367,
      "miss": 1368,
      "somewhere": 1369,
      "pers": 1370,
      "gy": 1371,
      "ure": 1372,
      "drop": 1373,
      "cur": 1374,
      "jam": 1375,
      "broke": 1376,
      "bat": 1377,
      "Pot": 1378,
      "dis": 1379,
      "theart": 1380,
      "word": 1381,
      "Pipp": 1382,
      "stra": 1383,
      "Bu": 1384,
      "gl": 1385,
      "cond": 1386,
      "Pippin": 1387,
      "ness": 1388,
      "nearly": 1389,
      "ather": 1390,
      "sugar": 1391,
      "sweetheart": 1392,
      "anymore": 1393,
      "building": 1394,
      "full": 1395,
      "ssed": 1396,
      "sweet": 1397,
      "Naima": 1398,
      "mis": 1399,
      "fight": 1400,
      "heard": 1401,
      "taste": 1402,
      "mming": 1403,
      "game": 1404,
      "excuse": 1405,
      "pup": 1406,
      "bubble": 1407,
      "shoe": 1408,
      "balloon": 1409,
      "write": 1410,
      "ala": 1411,
      "count": 1412,
      "walking": 1413,
      "inger": 1414,
      "wheels": 1415,
      "mic": 1416,
      "ladder": 1417,
      "swimming": 1418,
      "lay": 1419,
      "star": 1420,
      "mother": 1421,
      "blan": 1422,
      "La": 1423,
      "kinda": 1424,
      "sandwich": 1425,
      "glass": 1426,
      "Mr": 1427,
      "ates": 1428,
      "climb": 1429,
      "spa": 1430,
      "emp": 1431,
      "goodness": 1432,
      "tiny": 1433,
      "ends": 1434,
      "along": 1435,
      "sal": 1436,
      "bridge": 1437,
      "sweets": 1438,
      "grass": 1439,
      "grapes": 1440,
      "jelly": 1441,
      "music": 1442,
      "wards": 1443,
      "exce": 1444,
      "shh": 1445,
      "driving": 1446,
      "second": 1447,
      "pr": 1448,
      "rock": 1449,
      "pill": 1450,
      "nope": 1451,
      "colors": 1452,
      "clever": 1453,
      "Potato": 1454,
      "nut": 1455,
      "sur": 1456,
      "ched": 1457,
      "cod": 1458,
      "running": 1459,
      "ms": 1460,
      "babies": 1461,
      "fingers": 1462,
      "codile": 1463,
      "swing": 1464,
      "icy": 1465,
      "crocodile": 1466,
      "knee": 1467,
      "twe": 1468,
      "lift": 1469,
      "airplane": 1470,
      "moon": 1471,
      "fl": 1472,
      "flakes": 1473,
      "Isa": 1474,
      "ils": 1475,
      "present": 1476,
      "year": 1477,
      "Pooh": 1478,
      "each": 1479,
      "cookies": 1480,
      "basket": 1481,
      "ity": 1482,
      "nappie": 1483,
      "gon": 1484,
      "Head": 1485,
      "leg": 1486,
      "pumpkin": 1487,
      "fallen": 1488,
      "pear": 1489,
      "ages": 1490,
      "ines": 1491,
      "hiding": 1492,
      "micro": 1493,
      "wind": 1494,
      "ves": 1495,
      "itch": 1496,
      "fine": 1497,
      "twenty": 1498,
      "empty": 1499,
      "shed": 1500,
      "poop": 1501,
      "ground": 1502,
      "io": 1503,
      "iet": 1504,
      "land": 1505,
      "bra": 1506,
      "nap": 1507,
      "choos": 1508,
      "rown": 1509,
      "bike": 1510,
      "whis": 1511,
      "thinking": 1512,
      "shar": 1513,
      "sen": 1514,
      "seat": 1515,
      "sposta": 1516,
      "station": 1517,
      "potato": 1518,
      "ram": 1519,
      "ja": 1520,
      "bears": 1521,
      "blanket": 1522,
      "eaten": 1523,
      "crisps": 1524,
      "hope": 1525,
      "minutes": 1526,
      "friends": 1527,
      "telephone": 1528,
      "pour": 1529,
      "tiger": 1530,
      "anta": 1531,
      "someone": 1532,
      "Te": 1533,
      "watching": 1534,
      "jig": 1535,
      "yummy": 1536,
      "saur": 1537,
      "working": 1538,
      "check": 1539,
      "cats": 1540,
      "Grandad": 1541,
      "tonight": 1542,
      "bits": 1543,
      "great": 1544,
      "scr": 1545,
      "band": 1546,
      "sky": 1547,
      "icop": 1548,
      "letu": 1549,
      "quack": 1550,
      "boxes": 1551,
      "proper": 1552,
      "yog": 1553,
      "Fire": 1554,
      "once": 1555,
      "icopter": 1556,
      "looked": 1557,
      "hay": 1558,
      "neck": 1559,
      "coll": 1560,
      "carri": 1561,
      "quiet": 1562,
      "strawberry": 1563,
      "Auntie": 1564,
      "case": 1565,
      "sick": 1566,
      "port": 1567,
      "half": 1568,
      "onto": 1569,
      "enjo": 1570,
      "whole": 1571,
      "apples": 1572,
      "scare": 1573,
      "si": 1574,
      "mag": 1575,
      "cards": 1576,
      "happens": 1577,
      "cereal": 1578,
      "ks": 1579,
      "led": 1580,
      "ants": 1581,
      "sweetie": 1582,
      "dino": 1583,
      "Smar": 1584,
      "used": 1585,
      "Ross": 1586,
      "med": 1587,
      "Smarties": 1588,
      "dressed": 1589,
      "biscuits": 1590,
      "Ge": 1591,
      "eas": 1592,
      "swe": 1593,
      "frog": 1594,
      "ona": 1595,
      "shin": 1596,
      "jigsaw": 1597,
      "moment": 1598,
      "reach": 1599,
      "dinosaur": 1600,
      "iel": 1601,
      "Fireman": 1602,
      "strawberries": 1603,
      "Geor": 1604,
      "almost": 1605,
      "birds": 1606,
      "days": 1607,
      "suit": 1608,
      "liver": 1609,
      "Miss": 1610,
      "chips": 1611,
      "bul": 1612,
      "farmer": 1613,
      "except": 1614,
      "oud": 1615,
      "cher": 1616,
      "wra": 1617,
      "sticky": 1618,
      "Em": 1619,
      "Dadda": 1620,
      "Build": 1621,
      "brought": 1622,
      "Mon": 1623,
      "girls": 1624,
      "group": 1625,
      "hide": 1626,
      "cows": 1627,
      "splash": 1628,
      "anut": 1629,
      "bricks": 1630,
      "wake": 1631,
      "crac": 1632,
      "tion": 1633,
      "helicopter": 1634,
      "Pe": 1635,
      "Marky": 1636,
      "Builder": 1637,
      "track": 1638,
      "dump": 1639,
      "instead": 1640,
      "raining": 1641,
      "poin": 1642,
      "giving": 1643,
      "circle": 1644,
      "coat": 1645,
      "steps": 1646,
      "nursery": 1647,
      "Mo": 1648,
      "ouble": 1649,
      "cupboard": 1650,
      "cool": 1651,
      "drawing": 1652,
      "slide": 1653,
      "cot": 1654,
      "ently": 1655,
      "low": 1656,
      "inda": 1657,
      "asleep": 1658,
      "pies": 1659,
      "ourse": 1660,
      "scar": 1661,
      "also": 1662,
      "icycle": 1663,
      "microphone": 1664,
      "En": 1665,
      "ath": 1666,
      "quickly": 1667,
      "Teletu": 1668,
      "pon": 1669,
      "Mabel": 1670,
      "pumpkins": 1671,
      "crash": 1672,
      "hu": 1673,
      "tic": 1674,
      "ary": 1675,
      "ood": 1676,
      "bage": 1677,
      "tickle": 1678,
      "using": 1679,
      "Mrs": 1680,
      "ser": 1681,
      "wish": 1682,
      "arms": 1683,
      "carrots": 1684,
      "Linda": 1685,
      "umper": 1686,
      "Tank": 1687,
      "stree": 1688,
      "ife": 1689,
      "fat": 1690,
      "nic": 1691,
      "Ben": 1692,
      "mid": 1693,
      "giraf": 1694,
      "line": 1695,
      "tong": 1696,
      "lemon": 1697,
      "aer": 1698,
      "rel": 1699,
      "telling": 1700,
      "happening": 1701,
      "news": 1702,
      "fli": 1703,
      "ist": 1704,
      "purse": 1705,
      "swim": 1706,
      "fork": 1707,
      "bug": 1708,
      "Jess": 1709,
      "pin": 1710,
      "lives": 1711,
      "Hen": 1712,
      "den": 1713,
      "anybody": 1714,
      "pretending": 1715,
      "knife": 1716,
      "guys": 1717,
      "squir": 1718,
      "butterfly": 1719,
      "Bri": 1720,
      "Santa": 1721,
      "hing": 1722,
      "race": 1723,
      "without": 1724,
      "pasta": 1725,
      "heav": 1726,
      "rub": 1727,
      "vision": 1728,
      "gie": 1729,
      "gara": 1730,
      "witch": 1731,
      "sad": 1732,
      "sig": 1733,
      "whoo": 1734,
      "hop": 1735,
      "berries": 1736,
      "aster": 1737,
      "falling": 1738,
      "tomato": 1739,
      "cakes": 1740,
      "course": 1741,
      "noon": 1742,
      "painting": 1743,
      "person": 1744,
      "straight": 1745,
      "tower": 1746,
      "James": 1747,
      "street": 1748,
      "pper": 1749,
      "lap": 1750,
      "reading": 1751,
      "drinking": 1752,
      "spit": 1753,
      "scre": 1754,
      "sque": 1755,
      "horses": 1756,
      "waiting": 1757,
      "Brian": 1758,
      "ippo": 1759,
      "bun": 1760,
      "gen": 1761,
      "ginger": 1762,
      "mp": 1763,
      "seed": 1764,
      "cheeky": 1765,
      "garage": 1766,
      "ambul": 1767,
      "bbies": 1768,
      "dan": 1769,
      "stri": 1770,
      "ious": 1771,
      "bubbles": 1772,
      "chip": 1773,
      "television": 1774,
      "crunch": 1775,
      "spell": 1776,
      "fur": 1777,
      "penc": 1778,
      "lick": 1779,
      "ducks": 1780,
      "gently": 1781,
      "issor": 1782,
      "upside": 1783,
      "peanut": 1784,
      "cloth": 1785,
      "dough": 1786,
      "ey": 1787,
      "stam": 1788,
      "cray": 1789,
      "blocks": 1790,
      "Engine": 1791,
      "afternoon": 1792,
      "towel": 1793,
      "shoo": 1794,
      "fair": 1795,
      "closed": 1796,
      "du": 1797,
      "irr": 1798,
      "leaves": 1799,
      "fridge": 1800,
      "wave": 1801,
      "pizz": 1802,
      "dogs": 1803,
      "Child": 1804,
      "policeman": 1805,
      "pris": 1806,
      "Co": 1807,
      "colle": 1808,
      "ambulance": 1809,
      "yuck": 1810,
      "best": 1811,
      "shout": 1812,
      "bury": 1813,
      "postman": 1814,
      "scissor": 1815,
      "biscuit": 1816,
      "recorder": 1817,
      "puzz": 1818,
      "piggy": 1819,
      "heavy": 1820,
      "cover": 1821,
      "rm": 1822,
      "turtle": 1823,
      "dia": 1824,
      "grandma": 1825,
      "cing": 1826,
      "Je": 1827,
      "ee": 1828,
      "fre": 1829,
      "pound": 1830,
      "tast": 1831,
      "sname": 1832,
      "arn": 1833,
      "standing": 1834,
      "Childsname": 1835,
      "Ju": 1836,
      "suppo": 1837,
      "carrot": 1838,
      "load": 1839,
      "played": 1840,
      "missing": 1841,
      "pay": 1842,
      "whoa": 1843,
      "rib": 1844,
      "anyway": 1845,
      "pizza": 1846,
      "cra": 1847,
      "surpris": 1848,
      "ago": 1849,
      "nobody": 1850,
      "beans": 1851,
      "ale": 1852,
      "cid": 1853,
      "irror": 1854,
      "bicycle": 1855,
      "mirror": 1856,
      "shopping": 1857,
      "ipsy": 1858,
      "Henry": 1859,
      "pocket": 1860,
      "scissors": 1861,
      "started": 1862,
      "ped": 1863,
      "iting": 1864,
      "trouble": 1865,
      "sign": 1866,
      "ield": 1867,
      "kets": 1868,
      "pack": 1869,
      "riding": 1870,
      "enjoy": 1871,
      "Dipsy": 1872,
      "soft": 1873,
      "motor": 1874,
      "boun": 1875,
      "tw": 1876,
      "keys": 1877,
      "sausages": 1878,
      "ince": 1879,
      "beeba": 1880,
      "kick": 1881,
      "rot": 1882,
      "tongue": 1883,
      "ches": 1884,
      "late": 1885,
      "tid": 1886,
      "clown": 1887,
      "anas": 1888,
      "doo": 1889,
      "peas": 1890,
      "eli": 1891,
      "oink": 1892,
      "glue": 1893,
      "wise": 1894,
      "mustn": 1895,
      "flas": 1896,
      "mama": 1897,
      "doors": 1898,
      "spill": 1899,
      "plastic": 1900,
      "properly": 1901,
      "giraffe": 1902,
      "Mister": 1903,
      "flat": 1904,
      "sau": 1905,
      "roof": 1906,
      "sea": 1907,
      "ider": 1908,
      "onald": 1909,
      "middle": 1910,
      "whee": 1911,
      "shape": 1912,
      "square": 1913,
      "Donald": 1914,
      "teac": 1915,
      "Mic": 1916,
      "icing": 1917,
      "ppers": 1918,
      "ier": 1919,
      "sat": 1920,
      "soap": 1921,
      "ohn": 1922,
      "chairs": 1923,
      "newspaper": 1924,
      "esday": 1925,
      "belle": 1926,
      "screw": 1927,
      "backwards": 1928,
      "words": 1929,
      "works": 1930,
      "shops": 1931,
      "Noo": 1932,
      "Play": 1933,
      "goat": 1934,
      "igg": 1935,
      "laug": 1936,
      "upset": 1937,
      "tip": 1938,
      "tall": 1939,
      "ummer": 1940,
      "neath": 1941,
      "scrat": 1942,
      "throwing": 1943,
      "Char": 1944,
      "John": 1945,
      "allo": 1946,
      "whose": 1947,
      "belong": 1948,
      "cute": 1949,
      "monster": 1950,
      "loud": 1951,
      "Nathan": 1952,
      "cus": 1953,
      "base": 1954,
      "momma": 1955,
      "jamas": 1956,
      "proble": 1957,
      "missed": 1958,
      "apart": 1959,
      "met": 1960,
      "candy": 1961,
      "Har": 1962,
      "Sleep": 1963,
      "batter": 1964,
      "Un": 1965,
      "gun": 1966,
      "washed": 1967,
      "tub": 1968,
      "hug": 1969,
      "buttons": 1970,
      "Isabelle": 1971,
      "Do": 1972,
      "Lala": 1973,
      "des": 1974,
      "otherwise": 1975,
      "lamb": 1976,
      "fox": 1977,
      "doggie": 1978,
      "asked": 1979,
      "berry": 1980,
      "pengu": 1981,
      "sle": 1982,
      "innie": 1983,
      "oray": 1984,
      "Teletubbies": 1985,
      "teacher": 1986,
      "hooray": 1987,
      "trouse": 1988,
      "strong": 1989,
      "hook": 1990,
      "shouldn": 1991,
      "underneath": 1992,
      "field": 1993,
      "such": 1994,
      "beach": 1995,
      "hen": 1996,
      "scared": 1997,
      "Son": 1998,
      "ak": 1999,
      "lying": 2000,
      "ating": 2001,
      "myself": 2002,
      "pas": 2003,
      "byebye": 2004,
      "beg": 2005,
      "nel": 2006,
      "kids": 2007,
      "downstairs": 2008,
      "iler": 2009,
      "feeling": 2010,
      "stopped": 2011,
      "shining": 2012,
      "cuddle": 2013,
      "mel": 2014,
      "bib": 2015,
      "singing": 2016,
      "spital": 2017,
      "aah": 2018,
      "ried": 2019,
      "picked": 2020,
      "trousers": 2021,
      "fif": 2022,
      "velo": 2023,
      "meal": 2024,
      "ching": 2025,
      "jumping": 2026,
      "Frid": 2027,
      "whether": 2028,
      "imit": 2029,
      "hammer": 2030,
      "Friday": 2031,
      "woof": 2032,
      "space": 2033,
      "ross": 2034,
      "urt": 2035,
      "share": 2036,
      "Aunty": 2037,
      "iam": 2038,
      "turned": 2039,
      "Sleepy": 2040,
      "yer": 2041,
      "hospital": 2042,
      "envelo": 2043,
      "sharp": 2044,
      "Uncle": 2045,
      "Lu": 2046,
      "cto": 2047,
      "picnic": 2048,
      "Last": 2049,
      "aero": 2050,
      "Lastname": 2051,
      "angle": 2052,
      "less": 2053,
      "deliver": 2054,
      "snap": 2055,
      "flying": 2056,
      "lph": 2057,
      "oven": 2058,
      "twel": 2059,
      "ater": 2060,
      "bedr": 2061,
      "twelve": 2062,
      "bedroom": 2063,
      "Car": 2064,
      "vie": 2065,
      "righten": 2066,
      "nts": 2067,
      "atur": 2068,
      "sock": 2069,
      "iches": 2070,
      "caught": 2071,
      "cups": 2072,
      "puzzle": 2073,
      "del": 2074,
      "free": 2075,
      "vo": 2076,
      "lling": 2077,
      "dolph": 2078,
      "chur": 2079,
      "bananas": 2080,
      "Father": 2081,
      "ilt": 2082,
      "sweeties": 2083,
      "sore": 2084,
      "loves": 2085,
      "string": 2086,
      "hurts": 2087,
      "cutting": 2088,
      "Nathaniel": 2089,
      "jac": 2090,
      "taken": 2091,
      "zzy": 2092,
      "sister": 2093,
      "jumper": 2094,
      "sail": 2095,
      "yogurt": 2096,
      "Monday": 2097,
      "summer": 2098,
      "toes": 2099,
      "cab": 2100,
      "mail": 2101,
      "short": 2102,
      "block": 2103,
      "tun": 2104,
      "toe": 2105,
      "sandwiches": 2106,
      "presents": 2107,
      "vroom": 2108,
      "wagon": 2109,
      "medic": 2110,
      "zer": 2111,
      "gold": 2112,
      "cooking": 2113,
      "daisy": 2114,
      "imitra": 2115,
      "church": 2116,
      "Winnie": 2117,
      "frighten": 2118,
      "hoo": 2119,
      "tray": 2120,
      "diaper": 2121,
      "To": 2122,
      "tooth": 2123,
      "Dimitra": 2124,
      "grown": 2125,
      "ub": 2126,
      "allig": 2127,
      "chickens": 2128,
      "Corn": 2129,
      "trailer": 2130,
      "spr": 2131,
      "steady": 2132,
      "tock": 2133,
      "ney": 2134,
      "nest": 2135,
      "Sonia": 2136,
      "alligator": 2137,
      "peel": 2138,
      "Doh": 2139,
      "gate": 2140,
      "early": 2141,
      "shake": 2142,
      "pence": 2143,
      "pigs": 2144,
      "Ste": 2145,
      "troll": 2146,
      "iron": 2147,
      "packet": 2148,
      "pool": 2149,
      "eleven": 2150,
      "snip": 2151,
      "Dav": 2152,
      "Sar": 2153,
      "lets": 2154,
      "stir": 2155,
      "Jean": 2156,
      "boom": 2157,
      "por": 2158,
      "balls": 2159,
      "pillow": 2160,
      "changed": 2161,
      "Satur": 2162,
      "Sarah": 2163,
      "learn": 2164,
      "woman": 2165,
      "tool": 2166,
      "seeds": 2167,
      "pencil": 2168,
      "ahead": 2169,
      "across": 2170,
      "medicine": 2171,
      "horn": 2172,
      "vide": 2173,
      "bru": 2174,
      "Jack": 2175,
      "ben": 2176,
      "mud": 2177,
      "walked": 2178,
      "safe": 2179,
      "crane": 2180,
      "knocked": 2181,
      "fresh": 2182,
      "problem": 2183,
      "David": 2184,
      "ffin": 2185,
      "lli": 2186,
      "cky": 2187,
      "tidy": 2188,
      "meat": 2189,
      "Tinky": 2190,
      "kid": 2191,
      "moving": 2192,
      "blowing": 2193,
      "jumped": 2194,
      "corner": 2195,
      "hill": 2196,
      "till": 2197,
      "trick": 2198,
      "magic": 2199,
      "numbers": 2200,
      "puppy": 2201,
      "video": 2202,
      "holes": 2203,
      "opened": 2204,
      "Ber": 2205,
      "rice": 2206,
      "lips": 2207,
      "rolling": 2208,
      "Lau": 2209,
      "inde": 2210,
      "cater": 2211,
      "wooden": 2212,
      "Winky": 2213,
      "Peter": 2214,
      "bor": 2215,
      "hippo": 2216,
      "rella": 2217,
      "pow": 2218,
      "Missus": 2219,
      "scary": 2220,
      "anger": 2221,
      "sorts": 2222,
      "rings": 2223,
      "Mama": 2224,
      "scoo": 2225,
      "Se": 2226,
      "bright": 2227,
      "cough": 2228,
      "tight": 2229,
      "town": 2230,
      "bead": 2231,
      "save": 2232,
      "Saturday": 2233,
      "cock": 2234,
      "skip": 2235,
      "caterpill": 2236,
      "Feli": 2237,
      "broom": 2238,
      "houses": 2239,
      "boots": 2240,
      "Kris": 2241,
      "Per": 2242,
      "lin": 2243,
      "als": 2244,
      "ppy": 2245,
      "nicely": 2246,
      "Felix": 2247,
      "We": 2248,
      "itten": 2249,
      "sticker": 2250,
      "nuts": 2251,
      "crack": 2252,
      "slow": 2253,
      "uhuh": 2254,
      "smo": 2255,
      "muffin": 2256,
      "chocolates": 2257,
      "prin": 2258,
      "squirrel": 2259,
      "smas": 2260,
      "spider": 2261,
      "Dan": 2262,
      "knew": 2263,
      "firefight": 2264,
      "Le": 2265,
      "hose": 2266,
      "eats": 2267,
      "parce": 2268,
      "everywhere": 2269,
      "mend": 2270,
      "Cla": 2271,
      "noop": 2272,
      "noisy": 2273,
      "plan": 2274,
      "law": 2275,
      "helmet": 2276,
      "mixer": 2277,
      "sweep": 2278,
      "surprise": 2279,
      "aeroplane": 2280,
      "jacket": 2281,
      "De": 2282,
      "Gor": 2283,
      "liked": 2284,
      "smart": 2285,
      "hum": 2286,
      "ime": 2287,
      "ping": 2288,
      "rat": 2289,
      "vel": 2290,
      "asure": 2291,
      "plant": 2292,
      "shor": 2293,
      "bucket": 2294,
      "liday": 2295,
      "skin": 2296,
      "cracker": 2297,
      "Tu": 2298,
      "rad": 2299,
      "since": 2300,
      "drum": 2301,
      "mustache": 2302,
      "cornflakes": 2303,
      "racing": 2304,
      "Emily": 2305,
      "gentle": 2306,
      "dancing": 2307,
      "mme": 2308,
      "lego": 2309,
      "chick": 2310,
      "Becky": 2311,
      "Gordon": 2312,
      "spot": 2313,
      "baseball": 2314,
      "popcorn": 2315,
      "balloons": 2316,
      "envelope": 2317,
      "Cornflakes": 2318,
      "tv": 2319,
      "ingo": 2320,
      "lemme": 2321,
      "forty": 2322,
      "banging": 2323,
      "Jake": 2324,
      "ki": 2325,
      "pile": 2326,
      "decor": 2327,
      "tunnel": 2328,
      "Ne": 2329,
      "Sun": 2330,
      "stones": 2331,
      "ggie": 2332,
      "pulling": 2333,
      "hanging": 2334,
      "supper": 2335,
      "whistle": 2336,
      "sent": 2337,
      "iff": 2338,
      "playgroup": 2339,
      "hadn": 2340,
      "Ar": 2341,
      "holiday": 2342,
      "fill": 2343,
      "comb": 2344,
      "brother": 2345,
      "garbage": 2346,
      "easy": 2347,
      "noopy": 2348,
      "gum": 2349,
      "pit": 2350,
      "ason": 2351,
      "ute": 2352,
      "rather": 2353,
      "seem": 2354,
      "pipe": 2355,
      "In": 2356,
      "Rache": 2357,
      "tern": 2358,
      "Mark": 2359,
      "dum": 2360,
      "sies": 2361,
      "rais": 2362,
      "forget": 2363,
      "Mary": 2364,
      "Rachel": 2365,
      "luck": 2366,
      "soup": 2367,
      "ashed": 2368,
      "ions": 2369,
      "picking": 2370,
      "snakes": 2371,
      "Abi": 2372,
      "goodbye": 2373,
      "super": 2374,
      "salt": 2375,
      "Laura": 2376,
      "Tig": 2377,
      "ag": 2378,
      "cou": 2379,
      "cycle": 2380,
      "crab": 2381,
      "fan": 2382,
      "itter": 2383,
      "issue": 2384,
      "potatoes": 2385,
      "Molly": 2386,
      "Percy": 2387,
      "eng": 2388,
      "helping": 2389,
      "Georgie": 2390,
      "pine": 2391,
      "ths": 2392,
      "bean": 2393,
      "pajamas": 2394,
      "cheer": 2395,
      "squash": 2396,
      "carrying": 2397,
      "slippers": 2398,
      "Charlot": 2399,
      "powder": 2400,
      "tissue": 2401,
      "het": 2402,
      "stars": 2403,
      "ird": 2404,
      "movie": 2405,
      "pears": 2406,
      "clip": 2407,
      "sauce": 2408,
      "Charlotte": 2409,
      "yay": 2410,
      "neat": 2411,
      "takes": 2412,
      "Al": 2413,
      "crumb": 2414,
      "zebra": 2415,
      "dolls": 2416,
      "huge": 2417,
      "El": 2418,
      "ction": 2419,
      "cowboy": 2420,
      "fully": 2421,
      "visit": 2422,
      "point": 2423,
      "Tes": 2424,
      "sell": 2425,
      "frogs": 2426,
      "accid": 2427,
      "triangle": 2428,
      "cush": 2429,
      "thirst": 2430,
      "toi": 2431,
      "shapes": 2432,
      "ggy": 2433,
      "snack": 2434,
      "camera": 2435,
      "crayons": 2436,
      "Tesco": 2437,
      "iling": 2438,
      "given": 2439,
      "dead": 2440,
      "mad": 2441,
      "rh": 2442,
      "neigh": 2443,
      "cleaning": 2444,
      "tried": 2445,
      "rooster": 2446,
      "ghet": 2447,
      "hour": 2448,
      "stre": 2449,
      "ork": 2450,
      "donkey": 2451,
      "ters": 2452,
      "penguin": 2453,
      "fam": 2454,
      "spin": 2455,
      "fits": 2456,
      "candles": 2457,
      "Isabel": 2458,
      "engines": 2459,
      "thirsty": 2460,
      "Dingo": 2461,
      "zed": 2462,
      "fact": 2463,
      "York": 2464,
      "cal": 2465,
      "ian": 2466,
      "pond": 2467,
      "delic": 2468,
      "toilet": 2469,
      "ghetti": 2470,
      "Fred": 2471,
      "rin": 2472,
      "anda": 2473,
      "aroo": 2474,
      "office": 2475,
      "glad": 2476,
      "imagine": 2477,
      "bumped": 2478,
      "Sunday": 2479,
      "Dids": 2480,
      "rush": 2481,
      "lob": 2482,
      "bedtime": 2483,
      "Didsbury": 2484,
      "Mc": 2485,
      "Snoopy": 2486,
      "duh": 2487,
      "zy": 2488,
      "tax": 2489,
      "dream": 2490,
      "flour": 2491,
      "carriage": 2492,
      "sy": 2493,
      "snee": 2494,
      "veget": 2495,
      "candle": 2496,
      "caterpillar": 2497,
      "Tween": 2498,
      "ummhm": 2499,
      "dood": 2500,
      "seeing": 2501,
      "mam": 2502,
      "angaroo": 2503,
      "everyone": 2504,
      "understand": 2505,
      "smoo": 2506,
      "Bertie": 2507,
      "gas": 2508,
      "orang": 2509,
      "ticket": 2510,
      "pass": 2511,
      "ared": 2512,
      "knows": 2513,
      "reali": 2514,
      "marm": 2515,
      "ated": 2516,
      "toddle": 2517,
      "lead": 2518,
      "sticking": 2519,
      "squirt": 2520,
      "certain": 2521,
      "spaghetti": 2522,
      "oc": 2523,
      "St": 2524,
      "kangaroo": 2525,
      "owl": 2526,
      "elephants": 2527,
      "kitten": 2528,
      "ung": 2529,
      "firstname": 2530,
      "fishing": 2531,
      "smoke": 2532,
      "couple": 2533,
      "lan": 2534,
      "coloring": 2535,
      "welcome": 2536,
      "strange": 2537,
      "wrap": 2538,
      "Pa": 2539,
      "pri": 2540,
      "snowman": 2541,
      "quest": 2542,
      "stickers": 2543,
      "burn": 2544,
      "climbing": 2545,
      "fold": 2546,
      "queen": 2547,
      "Jim": 2548,
      "cco": 2549,
      "accident": 2550,
      "lt": 2551,
      "ina": 2552,
      "inte": 2553,
      "sting": 2554,
      "sol": 2555,
      "alone": 2556,
      "raid": 2557,
      "Momma": 2558,
      "umpty": 2559,
      "afraid": 2560,
      "keeps": 2561,
      "fle": 2562,
      "rocking": 2563,
      "bon": 2564,
      "dge": 2565,
      "dance": 2566,
      "rr": 2567,
      "rant": 2568,
      "youn": 2569,
      "enne": 2570,
      "anywhere": 2571,
      "worry": 2572,
      "interest": 2573,
      "asking": 2574,
      "windows": 2575,
      "gram": 2576,
      "danger": 2577,
      "parrot": 2578,
      "flies": 2579,
      "smooth": 2580,
      "norm": 2581,
      "chop": 2582,
      "yoghurt": 2583,
      "supposed": 2584,
      "firefighter": 2585,
      "rew": 2586,
      "Krispies": 2587,
      "crumbs": 2588,
      "family": 2589,
      "Bar": 2590,
      "cone": 2591,
      "vill": 2592,
      "res": 2593,
      "firemen": 2594,
      "smells": 2595,
      "forgotten": 2596,
      "lves": 2597,
      "belly": 2598,
      "log": 2599,
      "maam": 2600,
      "choose": 2601,
      "between": 2602,
      "taxi": 2603,
      "dden": 2604,
      "pir": 2605,
      "cove": 2606,
      "manage": 2607,
      "gers": 2608,
      "plain": 2609,
      "winter": 2610,
      "Fr": 2611,
      "Ru": 2612,
      "wine": 2613,
      "penny": 2614,
      "brocco": 2615,
      "hurry": 2616,
      "crunchy": 2617,
      "Claus": 2618,
      "toddler": 2619,
      "bby": 2620,
      "writing": 2621,
      "awful": 2622,
      "drawer": 2623,
      "scratch": 2624,
      "ras": 2625,
      "stru": 2626,
      "sofa": 2627,
      "lier": 2628,
      "bathroom": 2629,
      "circus": 2630,
      "pounds": 2631,
      "sees": 2632,
      "len": 2633,
      "rible": 2634,
      "world": 2635,
      "clear": 2636,
      "stamp": 2637,
      "delicious": 2638,
      "atta": 2639,
      "ises": 2640,
      "gies": 2641,
      "passen": 2642,
      "frightened": 2643,
      "lobster": 2644,
      "Ping": 2645,
      "onna": 2646,
      "beer": 2647,
      "trunk": 2648,
      "tastes": 2649,
      "ric": 2650,
      "remind": 2651,
      "pots": 2652,
      "blackcur": 2653,
      "stamps": 2654,
      "broccoli": 2655,
      "ited": 2656,
      "sticks": 2657,
      "doodle": 2658,
      "Mac": 2659,
      "cried": 2660,
      "jar": 2661,
      "ko": 2662,
      "mill": 2663,
      "zel": 2664,
      "net": 2665,
      "collec": 2666,
      "fer": 2667,
      "gest": 2668,
      "alade": 2669,
      "shell": 2670,
      "comput": 2671,
      "pushing": 2672,
      "whoosh": 2673,
      "oranges": 2674,
      "Che": 2675,
      "Ginger": 2676,
      "cess": 2677,
      "sil": 2678,
      "ship": 2679,
      "earlier": 2680,
      "Mi": 2681,
      "Sa": 2682,
      "Thur": 2683,
      "aid": 2684,
      "clas": 2685,
      "tro": 2686,
      "paw": 2687,
      "hats": 2688,
      "showing": 2689,
      "Tuesday": 2690,
      "thumb": 2691,
      "rope": 2692,
      "turning": 2693,
      "clay": 2694,
      "shorts": 2695,
      "marmalade": 2696,
      "Thurs": 2697,
      "bash": 2698,
      "thirty": 2699,
      "threw": 2700,
      "rail": 2701,
      "airport": 2702,
      "trip": 2703,
      "squee": 2704,
      "iggle": 2705,
      "village": 2706,
      "covered": 2707,
      "Gre": 2708,
      "een": 2709,
      "zing": 2710,
      "ged": 2711,
      "chin": 2712,
      "lored": 2713,
      "cast": 2714,
      "rainbow": 2715,
      "rubber": 2716,
      "flashing": 2717,
      "Ed": 2718,
      "Ethan": 2719,
      "Wed": 2720,
      "hon": 2721,
      "pair": 2722,
      "ladders": 2723,
      "suitcase": 2724,
      "motorcycle": 2725,
      "Jen": 2726,
      "os": 2727,
      "mumm": 2728,
      "suppose": 2729,
      "Rice": 2730,
      "lar": 2731,
      "icked": 2732,
      "peep": 2733,
      "treat": 2734,
      "fixed": 2735,
      "Tigger": 2736,
      "himself": 2737,
      "rabbits": 2738,
      "cially": 2739,
      "clou": 2740,
      "ail": 2741,
      "cen": 2742,
      "pho": 2743,
      "sunny": 2744,
      "iced": 2745,
      "living": 2746,
      "nails": 2747,
      "calling": 2748,
      "pony": 2749,
      "voice": 2750,
      "bank": 2751,
      "pad": 2752,
      "vest": 2753,
      "years": 2754,
      "inkle": 2755,
      "sleepy": 2756,
      "pud": 2757,
      "months": 2758,
      "beaker": 2759,
      "dragon": 2760,
      "laughing": 2761,
      "blackcurrant": 2762,
      "tank": 2763,
      "whatever": 2764,
      "cement": 2765,
      "river": 2766,
      "act": 2767,
      "contain": 2768,
      "Max": 2769,
      "Doctor": 2770,
      "Tweenies": 2771,
      "class": 2772,
      "dred": 2773,
      "shes": 2774,
      "shelf": 2775,
      "names": 2776,
      "record": 2777,
      "allowed": 2778,
      "wah": 2779,
      "haw": 2780,
      "true": 2781,
      "grandpa": 2782,
      "llington": 2783,
      "Wellington": 2784,
      "computer": 2785,
      "photo": 2786,
      "craw": 2787,
      "hael": 2788,
      "colored": 2789,
      "tains": 2790,
      "plates": 2791,
      "pages": 2792,
      "leaf": 2793,
      "ford": 2794,
      "moved": 2795,
      "beads": 2796,
      "rocks": 2797,
      "form": 2798,
      "hundred": 2799,
      "Thursday": 2800,
      "clap": 2801,
      "eve": 2802,
      "twee": 2803,
      "kept": 2804,
      "feather": 2805,
      "kinds": 2806,
      "Wedn": 2807,
      "bah": 2808,
      "dish": 2809,
      "spots": 2810,
      "market": 2811,
      "preschool": 2812,
      "sudden": 2813,
      "ult": 2814,
      "smile": 2815,
      "pretzel": 2816,
      "umbrella": 2817,
      "billy": 2818,
      "none": 2819,
      "nah": 2820,
      "thy": 2821,
      "seas": 2822,
      "bles": 2823,
      "Maggie": 2824,
      "send": 2825,
      "Mickey": 2826,
      "mammy": 2827,
      "umps": 2828,
      "lock": 2829,
      "tap": 2830,
      "ribb": 2831,
      "deli": 2832,
      "match": 2833,
      "feels": 2834,
      "weeks": 2835,
      "fancy": 2836,
      "Oliver": 2837,
      "gro": 2838,
      "mice": 2839,
      "quar": 2840,
      "ffic": 2841,
      "belt": 2842,
      "dolphin": 2843,
      "Gram": 2844,
      "Sm": 2845,
      "bie": 2846,
      "ved": 2847,
      "bees": 2848,
      "camp": 2849,
      "shine": 2850,
      "longer": 2851,
      "skunk": 2852,
      "growing": 2853,
      "Da": 2854,
      "Nonna": 2855,
      "gloves": 2856,
      "absol": 2857,
      "listening": 2858,
      "cherries": 2859,
      "crayon": 2860,
      "Pingu": 2861,
      "absolute": 2862,
      "Man": 2863,
      "No": 2864,
      "Wen": 2865,
      "stu": 2866,
      "life": 2867,
      "trash": 2868,
      "disap": 2869,
      "Juli": 2870,
      "Frank": 2871,
      "Pig": 2872,
      "moun": 2873,
      "lif": 2874,
      "bake": 2875,
      "uses": 2876,
      "Jan": 2877,
      "yeh": 2878,
      "others": 2879,
      "normally": 2880,
      "absolutely": 2881,
      "Wendy": 2882,
      "ni": 2883,
      "vac": 2884,
      "hops": 2885,
      "cap": 2886,
      "peach": 2887,
      "player": 2888,
      "silver": 2889,
      "hic": 2890,
      "wide": 2891,
      "kissing": 2892,
      "Mat": 2893,
      "heart": 2894,
      "libr": 2895,
      "brick": 2896,
      "grey": 2897,
      "stack": 2898,
      "pulled": 2899,
      "brushing": 2900,
      "stripes": 2901,
      "couch": 2902,
      "sink": 2903,
      "va": 2904,
      "vet": 2905,
      "belie": 2906,
      "bacon": 2907,
      "naw": 2908,
      "lace": 2909,
      "handle": 2910,
      "Annie": 2911,
      "lemonade": 2912,
      "buns": 2913,
      "belongs": 2914,
      "Stock": 2915,
      "refr": 2916,
      "oddy": 2917,
      "traffic": 2918,
      "teapot": 2919,
      "exact": 2920,
      "crackers": 2921,
      "pineapple": 2922,
      "Stockport": 2923,
      "Will": 2924,
      "andy": 2925,
      "pops": 2926,
      "cean": 2927,
      "lawn": 2928,
      "salad": 2929,
      "grownup": 2930,
      "refriger": 2931,
      "edge": 2932,
      "puts": 2933,
      "type": 2934,
      "facto": 2935,
      "weeken": 2936,
      "cotch": 2937,
      "shoot": 2938,
      "young": 2939,
      "vacu": 2940,
      "lun": 2941,
      "sewing": 2942,
      "tab": 2943,
      "shower": 2944,
      "spoons": 2945,
      "exciting": 2946,
      "mummie": 2947,
      "So": 2948,
      "dirt": 2949,
      "ka": 2950,
      "isa": 2951,
      "weed": 2952,
      "pea": 2953,
      "backpack": 2954,
      "cleaner": 2955,
      "rench": 2956,
      "smaller": 2957,
      "bells": 2958,
      "wonderful": 2959,
      "certainly": 2960,
      "exactly": 2961,
      "God": 2962,
      "Hallo": 2963,
      "weight": 2964,
      "sty": 2965,
      "chang": 2966,
      "beds": 2967,
      "shiny": 2968,
      "clouds": 2969,
      "vacuum": 2970,
      "Halloween": 2971,
      "Easter": 2972,
      "crib": 2973,
      "ocean": 2974,
      "vit": 2975,
      "ony": 2976,
      "arri": 2977,
      "espe": 2978,
      "often": 2979,
      "herself": 2980,
      "gaz": 2981,
      "meant": 2982,
      "least": 2983,
      "rasp": 2984,
      "Wednesday": 2985,
      "especially": 2986,
      "kill": 2987,
      "nips": 2988,
      "rug": 2989,
      "buzz": 2990,
      "ular": 2991,
      "entist": 2992,
      "enjoying": 2993,
      "Luke": 2994,
      "weekend": 2995,
      "Puss": 2996,
      "Spain": 2997,
      "panda": 2998,
      "magaz": 2999,
      "believe": 3000,
      "factory": 3001,
      "Bo": 3002,
      "Fran": 3003,
      "Honey": 3004,
      "Lisa": 3005,
      "sid": 3006,
      "stone": 3007,
      "bud": 3008,
      "stove": 3009,
      "camel": 3010,
      "slipper": 3011,
      "parcel": 3012,
      "radio": 3013,
      "Par": 3014,
      "grab": 3015,
      "boing": 3016,
      "bother": 3017,
      "bugs": 3018,
      "dinosaurs": 3019,
      "question": 3020,
      "Soo": 3021,
      "bile": 3022,
      "opening": 3023,
      "spilt": 3024,
      "older": 3025,
      "roller": 3026,
      "George": 3027,
      "collect": 3028,
      "castle": 3029,
      "ano": 3030,
      "parts": 3031,
      "extra": 3032,
      "carefully": 3033,
      "keeper": 3034,
      "answer": 3035,
      "tomatoes": 3036,
      "refrigerator": 3037,
      "Gold": 3038,
      "sw": 3039,
      "erc": 3040,
      "lions": 3041,
      "aling": 3042,
      "thinks": 3043,
      "vers": 3044,
      "tric": 3045,
      "spring": 3046,
      "raisins": 3047,
      "rhy": 3048,
      "tweet": 3049,
      "bri": 3050,
      "stro": 3051,
      "cob": 3052,
      "lolly": 3053,
      "mobile": 3054,
      "teas": 3055,
      "sits": 3056,
      "barrow": 3057,
      "slice": 3058,
      "fifty": 3059,
      "smash": 3060,
      "interesting": 3061,
      "delivery": 3062,
      "Care": 3063,
      "Pippo": 3064,
      "coon": 3065,
      "father": 3066,
      "pilot": 3067,
      "lucky": 3068,
      "buck": 3069,
      "ckets": 3070,
      "lk": 3071,
      "pram": 3072,
      "sma": 3073,
      "ugg": 3074,
      "goose": 3075,
      "host": 3076,
      "plants": 3077,
      "turkey": 3078,
      "Bella": 3079,
      "puppet": 3080,
      "library": 3081,
      "bones": 3082,
      "ible": 3083,
      "pets": 3084,
      "fect": 3085,
      "bless": 3086,
      "phss": 3087,
      "decid": 3088,
      "grape": 3089,
      "died": 3090,
      "feeding": 3091,
      "sweater": 3092,
      "Bab": 3093,
      "Doug": 3094,
      "kne": 3095,
      "chim": 3096,
      "ceiling": 3097,
      "toot": 3098,
      "comp": 3099,
      "controll": 3100,
      "lantern": 3101,
      "Julian": 3102,
      "Rod": 3103,
      "crow": 3104,
      "daf": 3105,
      "ging": 3106,
      "zip": 3107,
      "seems": 3108,
      "country": 3109,
      "mixed": 3110,
      "fluff": 3111,
      "Harold": 3112,
      "battery": 3113,
      "dangerous": 3114,
      "container": 3115,
      "Little": 3116,
      "watched": 3117,
      "monkeys": 3118,
      "steam": 3119,
      "planes": 3120,
      "pudding": 3121,
      "Ca": 3122,
      "ghost": 3123,
      "oni": 3124,
      "lip": 3125,
      "popped": 3126,
      "lamp": 3127,
      "rude": 3128,
      "click": 3129,
      "size": 3130,
      "rinse": 3131,
      "pirate": 3132,
      "suddenly": 3133,
      "ive": 3134,
      "sca": 3135,
      "wis": 3136,
      "mers": 3137,
      "lose": 3138,
      "chew": 3139,
      "bull": 3140,
      "cran": 3141,
      "exerc": 3142,
      "slip": 3143,
      "Carey": 3144,
      "Ke": 3145,
      "born": 3146,
      "city": 3147,
      "suck": 3148,
      "telly": 3149,
      "drinks": 3150,
      "dining": 3151,
      "sixteen": 3152,
      "messy": 3153,
      "yucky": 3154,
      "Ly": 3155,
      "gid": 3156,
      "mush": 3157,
      "mister": 3158,
      "stool": 3159,
      "vy": 3160,
      "thro": 3161,
      "plenty": 3162,
      "easier": 3163,
      "vase": 3164,
      "inter": 3165,
      "umble": 3166,
      "roar": 3167,
      "ables": 3168,
      "blueberries": 3169,
      "treasure": 3170,
      "Ba": 3171,
      "oil": 3172,
      "swish": 3173,
      "weigh": 3174,
      "wings": 3175,
      "More": 3176,
      "Michael": 3177,
      "sailor": 3178,
      "slowly": 3179,
      "Cook": 3180,
      "ded": 3181,
      "ica": 3182,
      "tel": 3183,
      "buss": 3184,
      "hurting": 3185,
      "fixing": 3186,
      "starts": 3187,
      "octop": 3188,
      "squeeze": 3189,
      "hopscotch": 3190,
      "controller": 3191,
      "Cat": 3192,
      "gri": 3193,
      "ray": 3194,
      "nor": 3195,
      "hah": 3196,
      "poss": 3197,
      "perfect": 3198,
      "ballet": 3199,
      "birdie": 3200,
      "spon": 3201,
      "scra": 3202,
      "bounce": 3203,
      "ribbon": 3204,
      "reason": 3205,
      "ley": 3206,
      "waff": 3207,
      "forest": 3208,
      "Dadaw": 3209,
      "wheelbarrow": 3210,
      "cooked": 3211,
      "slug": 3212,
      "join": 3213,
      "siren": 3214,
      "Step": 3215,
      "sides": 3216,
      "giddy": 3217,
      "ridge": 3218,
      "resta": 3219,
      "lolli": 3220,
      "lettu": 3221,
      "woke": 3222,
      "tools": 3223,
      "bling": 3224,
      "tune": 3225,
      "watering": 3226,
      "fifteen": 3227,
      "rattle": 3228,
      "restaur": 3229,
      "Gri": 3230,
      "Mir": 3231,
      "Mother": 3232,
      "Old": 3233,
      "char": 3234,
      "mper": 3235,
      "ingle": 3236,
      "wolf": 3237,
      "dere": 3238,
      "prote": 3239,
      "aches": 3240,
      "gingerbread": 3241,
      "Mouse": 3242,
      "nies": 3243,
      "son": 3244,
      "whale": 3245,
      "plac": 3246,
      "earrings": 3247,
      "brr": 3248,
      "boot": 3249,
      "enjoyed": 3250,
      "cherry": 3251,
      "hoover": 3252,
      "McDonald": 3253,
      "changing": 3254,
      "cht": 3255,
      "noises": 3256,
      "toaster": 3257,
      "nail": 3258,
      "sharing": 3259,
      "ments": 3260,
      "dusting": 3261,
      "tasty": 3262,
      "lliant": 3263,
      "scooter": 3264,
      "brilliant": 3265,
      "kite": 3266,
      "ahhah": 3267,
      "unless": 3268,
      "icecream": 3269,
      "carpet": 3270,
      "named": 3271,
      "ulk": 3272,
      "dried": 3273,
      "postbox": 3274,
      "songs": 3275,
      "necklace": 3276,
      "licking": 3277,
      "New": 3278,
      "luncht": 3279,
      "decided": 3280,
      "lunchtime": 3281,
      "Fro": 3282,
      "dumper": 3283,
      "snot": 3284,
      "instru": 3285,
      "dot": 3286,
      "plug": 3287,
      "llotape": 3288,
      "waving": 3289,
      "ski": 3290,
      "excited": 3291,
      "cheerlead": 3292,
      "William": 3293,
      "Ho": 3294,
      "Tex": 3295,
      "abo": 3296,
      "bone": 3297,
      "yard": 3298,
      "rocket": 3299,
      "cupcake": 3300,
      "whoop": 3301,
      "lettuce": 3302,
      "Dor": 3303,
      "Spot": 3304,
      "Wood": 3305,
      "kin": 3306,
      "spen": 3307,
      "thrown": 3308,
      "cage": 3309,
      "tied": 3310,
      "tipped": 3311,
      "paste": 3312,
      "games": 3313,
      "blueberry": 3314,
      "phie": 3315,
      "Monster": 3316,
      "vegetables": 3317,
      "Nan": 3318,
      "scream": 3319,
      "rol": 3320,
      "pepper": 3321,
      "wool": 3322,
      "touching": 3323,
      "Aunt": 3324,
      "cushion": 3325,
      "octopus": 3326,
      "Stephen": 3327,
      "Stree": 3328,
      "hh": 3329,
      "coles": 3330,
      "needed": 3331,
      "built": 3332,
      "horsies": 3333,
      "cooker": 3334,
      "freezer": 3335,
      "Wellingtons": 3336,
      "Street": 3337,
      "coleslaw": 3338,
      "fig": 3339,
      "fed": 3340,
      "rum": 3341,
      "gee": 3342,
      "locked": 3343,
      "calen": 3344,
      "lam": 3345,
      "wears": 3346,
      "smelly": 3347,
      "landed": 3348,
      "desk": 3349,
      "Alice": 3350,
      "Lyn": 3351,
      "sponge": 3352,
      "restaurant": 3353,
      "calendar": 3354,
      "Karen": 3355,
      "sometime": 3356,
      "merry": 3357,
      "bouncy": 3358,
      "laugh": 3359,
      "porridge": 3360,
      "passengers": 3361,
      "Texas": 3362,
      "above": 3363,
      "Ale": 3364,
      "Spen": 3365,
      "oat": 3366,
      "reg": 3367,
      "llie": 3368,
      "sew": 3369,
      "stayed": 3370,
      "dec": 3371,
      "dered": 3372,
      "defin": 3373,
      "lived": 3374,
      "bringing": 3375,
      "sunglasses": 3376,
      "evening": 3377,
      "bottles": 3378,
      "snips": 3379,
      "petrol": 3380,
      "wrapped": 3381,
      "flip": 3382,
      "flash": 3383,
      "large": 3384,
      "grocer": 3385,
      "Sooty": 3386,
      "Spencer": 3387,
      "Brown": 3388,
      "cca": 3389,
      "fis": 3390,
      "sack": 3391,
      "falls": 3392,
      "cleaned": 3393,
      "flavor": 3394,
      "highchair": 3395,
      "shark": 3396,
      "Smart": 3397,
      "places": 3398,
      "May": 3399,
      "thir": 3400,
      "ler": 3401,
      "alarm": 3402,
      "noticed": 3403,
      "plays": 3404,
      "shot": 3405,
      "follow": 3406,
      "windy": 3407,
      "portant": 3408,
      "iously": 3409,
      "Manche": 3410,
      "Cookie": 3411,
      "Hulk": 3412,
      "swall": 3413,
      "zen": 3414,
      "resc": 3415,
      "important": 3416,
      "itely": 3417,
      "willie": 3418,
      "comfor": 3419,
      "Ann": 3420,
      "pointing": 3421,
      "sert": 3422,
      "Harry": 3423,
      "ironing": 3424,
      "Smartie": 3425,
      "fod": 3426,
      "pha": 3427,
      "sey": 3428,
      "gor": 3429,
      "arrow": 3430,
      "sold": 3431,
      "bal": 3432,
      "uring": 3433,
      "angry": 3434,
      "Sophie": 3435,
      "meet": 3436,
      "order": 3437,
      "holly": 3438,
      "teat": 3439,
      "program": 3440,
      "squish": 3441,
      "Andy": 3442,
      "spray": 3443,
      "Daniel": 3444,
      "King": 3445,
      "bunch": 3446,
      "dentist": 3447,
      "equ": 3448,
      "kis": 3449,
      "war": 3450,
      "ics": 3451,
      "pom": 3452,
      "fireworks": 3453,
      "staying": 3454,
      "flap": 3455,
      "raccoon": 3456,
      "delivering": 3457,
      "trolley": 3458,
      "daffod": 3459,
      "thirteen": 3460,
      "Tim": 3461,
      "slot": 3462,
      "coke": 3463,
      "pleased": 3464,
      "crown": 3465,
      "flag": 3466,
      "clim": 3467,
      "cotton": 3468,
      "Sellotape": 3469,
      "kiwi": 3470,
      "definitely": 3471,
      "Manchester": 3472,
      "cust": 3473,
      "thin": 3474,
      "weather": 3475,
      "hallo": 3476,
      "obv": 3477,
      "rolls": 3478,
      "painted": 3479,
      "dressing": 3480,
      "recording": 3481,
      "railway": 3482,
      "seaside": 3483,
      "rescue": 3484,
      "climbed": 3485,
      "kay": 3486,
      "liqu": 3487,
      "macar": 3488,
      "poppet": 3489,
      "graph": 3490,
      "windmill": 3491,
      "Emmy": 3492,
      "bend": 3493,
      "princess": 3494,
      "ungle": 3495,
      "smack": 3496,
      "chimney": 3497,
      "Miriam": 3498,
      "macaroni": 3499,
      "claw": 3500,
      "dles": 3501,
      "hig": 3502,
      "wiggle": 3503,
      "map": 3504,
      "tells": 3505,
      "giant": 3506,
      "crashed": 3507,
      "heads": 3508,
      "topher": 3509,
      "Christopher": 3510,
      "starting": 3511,
      "checking": 3512,
      "carriages": 3513,
      "magazine": 3514,
      "halloween": 3515,
      "obviously": 3516,
      "Abig": 3517,
      "tch": 3518,
      "thur": 3519,
      "rels": 3520,
      "wie": 3521,
      "mashed": 3522,
      "pole": 3523,
      "rip": 3524,
      "worm": 3525,
      "list": 3526,
      "cluck": 3527,
      "Alex": 3528,
      "ned": 3529,
      "pip": 3530,
      "site": 3531,
      "oking": 3532,
      "ours": 3533,
      "breakdown": 3534,
      "badge": 3535,
      "whiskers": 3536,
      "pinch": 3537,
      "Toad": 3538,
      "Baby": 3539,
      "Abigail": 3540,
      "Billy": 3541,
      "Ted": 3542,
      "ctric": 3543,
      "turns": 3544,
      "patio": 3545,
      "wrapping": 3546,
      "serv": 3547,
      "loads": 3548,
      "Carl": 3549,
      "hip": 3550,
      "third": 3551,
      "cases": 3552,
      "sham": 3553,
      "blood": 3554,
      "shovel": 3555,
      "helped": 3556,
      "gging": 3557,
      "ketch": 3558,
      "pushed": 3559,
      "mixing": 3560,
      "peek": 3561,
      "lollipop": 3562,
      "eyo": 3563,
      "tan": 3564,
      "reinde": 3565,
      "sel": 3566,
      "golf": 3567,
      "cave": 3568,
      "neen": 3569,
      "uni": 3570,
      "penguins": 3571,
      "begin": 3572,
      "Humpty": 3573,
      "bs": 3574,
      "lines": 3575,
      "oe": 3576,
      "psh": 3577,
      "goo": 3578,
      "label": 3579,
      "fourteen": 3580,
      "electric": 3581,
      "written": 3582,
      "Robin": 3583,
      "custard": 3584,
      "shampoo": 3585,
      "alive": 3586,
      "ners": 3587,
      "tou": 3588,
      "ature": 3589,
      "gobble": 3590,
      "ering": 3591,
      "kettle": 3592,
      "buying": 3593,
      "nursies": 3594,
      "drives": 3595,
      "neighbor": 3596,
      "realized": 3597,
      "seesaw": 3598,
      "Apri": 3599,
      "Er": 3600,
      "Lon": 3601,
      "fic": 3602,
      "hotel": 3603,
      "tracks": 3604,
      "sandals": 3605,
      "skirt": 3606,
      "crisp": 3607,
      "swinging": 3608,
      "carrier": 3609,
      "alent": 3610,
      "parcels": 3611,
      "April": 3612,
      "London": 3613,
      "Eeyo": 3614,
      "Lou": 3615,
      "dam": 3616,
      "prac": 3617,
      "stup": 3618,
      "alpha": 3619,
      "tear": 3620,
      "abbit": 3621,
      "stock": 3622,
      "worked": 3623,
      "tent": 3624,
      "talked": 3625,
      "finding": 3626,
      "guit": 3627,
      "sounded": 3628,
      "moneys": 3629,
      "boring": 3630,
      "mountain": 3631,
      "cheerleader": 3632,
      "ax": 3633,
      "ald": 3634,
      "cones": 3635,
      "hood": 3636,
      "nick": 3637,
      "vent": 3638,
      "gown": 3639,
      "uper": 3640,
      "tions": 3641,
      "guard": 3642,
      "pyjamas": 3643,
      "curtains": 3644,
      "cushions": 3645,
      "hours": 3646,
      "paws": 3647,
      "Sally": 3648,
      "Th": 3649,
      "bush": 3650,
      "gif": 3651,
      "jungle": 3652,
      "ud": 3653,
      "llent": 3654,
      "seal": 3655,
      "tube": 3656,
      "piggie": 3657,
      "insbury": 3658,
      "sunshine": 3659,
      "Rosie": 3660,
      "tails": 3661,
      "ledge": 3662,
      "aerob": 3663,
      "horns": 3664,
      "Sainsbury": 3665,
      "stroke": 3666,
      "stupid": 3667,
      "dies": 3668,
      "sang": 3669,
      "abra": 3670,
      "felt": 3671,
      "blew": 3672,
      "falled": 3673,
      "digging": 3674,
      "chain": 3675,
      "spells": 3676,
      "screwdriver": 3677,
      "melon": 3678,
      "Arthur": 3679,
      "sneeze": 3680,
      "realize": 3681,
      "Milo": 3682,
      "camping": 3683,
      "knees": 3684,
      "higher": 3685,
      "guitar": 3686,
      "aerobics": 3687,
      "Cran": 3688,
      "est": 3689,
      "lear": 3690,
      "hamb": 3691,
      "papa": 3692,
      "matches": 3693,
      "knit": 3694,
      "Elsie": 3695,
      "photograph": 3696,
      "sip": 3697,
      "beat": 3698,
      "bena": 3699,
      "erry": 3700,
      "baking": 3701,
      "urger": 3702,
      "earth": 3703,
      "worms": 3704,
      "baller": 3705,
      "gives": 3706,
      "torch": 3707,
      "plaster": 3708,
      "excellent": 3709,
      "ctors": 3710,
      "ketchup": 3711,
      "Cranky": 3712,
      "Jona": 3713,
      "Rabbit": 3714,
      "metal": 3715,
      "ums": 3716,
      "petal": 3717,
      "bran": 3718,
      "faces": 3719,
      "oughta": 3720,
      "ipment": 3721,
      "eighteen": 3722,
      "jolly": 3723,
      "straps": 3724,
      "kittens": 3725,
      "snipsnips": 3726,
      "teatime": 3727,
      "alphabet": 3728,
      "Dumpty": 3729,
      "Kate": 3730,
      "ied": 3731,
      "lu": 3732,
      "rus": 3733,
      "rect": 3734,
      "towards": 3735,
      "stall": 3736,
      "wife": 3737,
      "plat": 3738,
      "thankyou": 3739,
      "opens": 3740,
      "deep": 3741,
      "cuc": 3742,
      "pancakes": 3743,
      "ninety": 3744,
      "dishes": 3745,
      "Teletubby": 3746,
      "hula": 3747,
      "squea": 3748,
      "shouting": 3749,
      "surprised": 3750,
      "Jeannine": 3751,
      "collecting": 3752,
      "Piglet": 3753,
      "waffle": 3754,
      "equipment": 3755,
      "Day": 3756,
      "jingle": 3757,
      "nas": 3758,
      "plo": 3759,
      "measure": 3760,
      "notice": 3761,
      "tapes": 3762,
      "terrible": 3763,
      "path": 3764,
      "tran": 3765,
      "horrible": 3766,
      "leaving": 3767,
      "dada": 3768,
      "diffic": 3769,
      "nursie": 3770,
      "counting": 3771,
      "circles": 3772,
      "begins": 3773,
      "Indi": 3774,
      "feathers": 3775,
      "comfortable": 3776,
      "claws": 3777,
      "Big": 3778,
      "muse": 3779,
      "sir": 3780,
      "thew": 3781,
      "dots": 3782,
      "donald": 3783,
      "baker": 3784,
      "anyone": 3785,
      "fires": 3786,
      "umpy": 3787,
      "Polly": 3788,
      "breaking": 3789,
      "cutter": 3790,
      "posting": 3791,
      "duckling": 3792,
      "ladybug": 3793,
      "easily": 3794,
      "bagel": 3795,
      "Matthew": 3796,
      "Ella": 3797,
      "bber": 3798,
      "das": 3799,
      "jack": 3800,
      "arch": 3801,
      "cope": 3802,
      "chest": 3803,
      "illa": 3804,
      "judge": 3805,
      "teach": 3806,
      "hedge": 3807,
      "chalk": 3808,
      "spilled": 3809,
      "monsters": 3810,
      "bench": 3811,
      "smoothie": 3812,
      "mushroom": 3813,
      "dand": 3814,
      "easter": 3815,
      "knot": 3816,
      "lic": 3817,
      "rick": 3818,
      "tig": 3819,
      "llies": 3820,
      "ices": 3821,
      "liz": 3822,
      "mower": 3823,
      "pota": 3824,
      "brum": 3825,
      "worried": 3826,
      "seventeen": 3827,
      "ribbit": 3828,
      "Jimmy": 3829,
      "Eeyore": 3830,
      "museum": 3831,
      "Ri": 3832,
      "bout": 3833,
      "sno": 3834,
      "slid": 3835,
      "tow": 3836,
      "mee": 3837,
      "geous": 3838,
      "lake": 3839,
      "els": 3840,
      "woods": 3841,
      "nineteen": 3842,
      "pouring": 3843,
      "scarf": 3844,
      "mended": 3845,
      "mitten": 3846,
      "nu": 3847,
      "uncle": 3848,
      "peared": 3849,
      "brrm": 3850,
      "anged": 3851,
      "deer": 3852,
      "Grandpa": 3853,
      "drew": 3854,
      "lorrys": 3855,
      "margar": 3856,
      "piano": 3857,
      "quietly": 3858,
      "brushes": 3859,
      "stress": 3860,
      "rhyme": 3861,
      "gorgeous": 3862,
      "difficult": 3863,
      "margarine": 3864,
      "Bunny": 3865,
      "Plat": 3866,
      "nit": 3867,
      "ot": 3868,
      "thunder": 3869,
      "ory": 3870,
      "cheep": 3871,
      "qua": 3872,
      "spread": 3873,
      "ipper": 3874,
      "grandad": 3875,
      "pati": 3876,
      "salmon": 3877,
      "dolphins": 3878,
      "figure": 3879,
      "reindeer": 3880,
      "Jason": 3881,
      "Nor": 3882,
      "spic": 3883,
      "pau": 3884,
      "faster": 3885,
      "waking": 3886,
      "stays": 3887,
      "itches": 3888,
      "charac": 3889,
      "pencils": 3890,
      "brushed": 3891,
      "hippopota": 3892,
      "grownups": 3893,
      "Boo": 3894,
      "Li": 3895,
      "fra": 3896,
      "nis": 3897,
      "switch": 3898,
      "onion": 3899,
      "keeping": 3900,
      "letterbox": 3901,
      "ehive": 3902,
      "tickets": 3903,
      "Lewis": 3904,
      "Dece": 3905,
      "crawl": 3906,
      "ballerina": 3907,
      "Am": 3908,
      "Bat": 3909,
      "xy": 3910,
      "rec": 3911,
      "seam": 3912,
      "chug": 3913,
      "nect": 3914,
      "obbin": 3915,
      "shows": 3916,
      "pattern": 3917,
      "saucer": 3918,
      "batteries": 3919,
      "batterys": 3920,
      "toothbrush": 3921,
      "decorate": 3922,
      "flew": 3923,
      "honk": 3924,
      "quarter": 3925,
      "Teddy": 3926,
      "Dar": 3927,
      "Go": 3928,
      "vin": 3929,
      "hall": 3930,
      "coa": 3931,
      "diddle": 3932,
      "unt": 3933,
      "shaped": 3934,
      "wondered": 3935,
      "juicy": 3936,
      "runs": 3937,
      "closer": 3938,
      "Josh": 3939,
      "squirrels": 3940,
      "goats": 3941,
      "custo": 3942,
      "buddy": 3943,
      "throat": 3944,
      "December": 3945,
      "Kat": 3946,
      "Que": 3947,
      "Ric": 3948,
      "Ther": 3949,
      "pips": 3950,
      "ua": 3951,
      "valent": 3952,
      "ino": 3953,
      "ites": 3954,
      "yell": 3955,
      "icker": 3956,
      "tery": 3957,
      "amin": 3958,
      "stops": 3959,
      "stories": 3960,
      "mark": 3961,
      "marbles": 3962,
      "daught": 3963,
      "hunh": 3964,
      "wondering": 3965,
      "sleeve": 3966,
      "vegetable": 3967,
      "daffodils": 3968,
      "seamstress": 3969,
      "Queen": 3970,
      "chas": 3971,
      "nce": 3972,
      "selves": 3973,
      "wild": 3974,
      "roses": 3975,
      "helps": 3976,
      "ladies": 3977,
      "rolled": 3978,
      "butterflies": 3979,
      "coop": 3980,
      "hidden": 3981,
      "Danny": 3982,
      "Lily": 3983,
      "Sandy": 3984,
      "rup": 3985,
      "swan": 3986,
      "tis": 3987,
      "ada": 3988,
      "add": 3989,
      "neare": 3990,
      "afterwards": 3991,
      "dama": 3992,
      "beef": 3993,
      "Bethan": 3994,
      "snugg": 3995,
      "toothpaste": 3996,
      "Griz": 3997,
      "touched": 3998,
      "Jonathan": 3999,
      "platform": 4000,
      "Just": 4001,
      "Sp": 4002,
      "ib": 4003,
      "iki": 4004,
      "rever": 4005,
      "heal": 4006,
      "secre": 4007,
      "dong": 4008,
      "forward": 4009,
      "ief": 4010,
      "wobble": 4011,
      "rious": 4012,
      "iles": 4013,
      "dee": 4014,
      "walks": 4015,
      "boats": 4016,
      "Buzz": 4017,
      "furnit": 4018,
      "slee": 4019,
      "hiccups": 4020,
      "hippopotamus": 4021,
      "chasing": 4022,
      "furniture": 4023,
      "Cinde": 4024,
      "Jes": 4025,
      "serious": 4026,
      "ents": 4027,
      "wiping": 4028,
      "rose": 4029,
      "male": 4030,
      "laun": 4031,
      "biting": 4032,
      "ringing": 4033,
      "conf": 4034,
      "barber": 4035,
      "builder": 4036,
      "pastry": 4037,
      "Tommy": 4038,
      "squeak": 4039,
      "bulldo": 4040,
      "regular": 4041,
      "tigers": 4042,
      "Ribena": 4043,
      "Lei": 4044,
      "She": 4045,
      "cin": 4046,
      "cas": 4047,
      "ming": 4048,
      "rah": 4049,
      "sne": 4050,
      "wight": 4051,
      "roast": 4052,
      "rake": 4053,
      "parked": 4054,
      "frozen": 4055,
      "phones": 4056,
      "sleeps": 4057,
      "snowing": 4058,
      "Lynne": 4059,
      "gift": 4060,
      "Re": 4061,
      "bill": 4062,
      "borrow": 4063,
      "ced": 4064,
      "fes": 4065,
      "hate": 4066,
      "punch": 4067,
      "sword": 4068,
      "wand": 4069,
      "wha": 4070,
      "state": 4071,
      "army": 4072,
      "oned": 4073,
      "pressed": 4074,
      "closing": 4075,
      "dese": 4076,
      "boop": 4077,
      "club": 4078,
      "drawn": 4079,
      "fighting": 4080,
      "puppets": 4081,
      "stripy": 4082,
      "Charlie": 4083,
      "tidying": 4084,
      "hummus": 4085,
      "Bethany": 4086,
      "Cinderella": 4087,
      "ame": 4088,
      "awake": 4089,
      "gall": 4090,
      "god": 4091,
      "goed": 4092,
      "beard": 4093,
      "nasty": 4094,
      "cart": 4095,
      "frosting": 4096,
      "compost": 4097,
      "papers": 4098,
      "bbly": 4099,
      "yawn": 4100,
      "snif": 4101,
      "crocodiles": 4102,
      "dancer": 4103,
      "lifting": 4104,
      "daughter": 4105,
      "secret": 4106,
      "Bet": 4107,
      "Dobbin": 4108,
      "Ele": 4109,
      "Me": 4110,
      "Mur": 4111,
      "Noddy": 4112,
      "Sh": 4113,
      "Shar": 4114,
      "nip": 4115,
      "pple": 4116,
      "spark": 4117,
      "ahphss": 4118,
      "biggest": 4119,
      "snail": 4120,
      "drove": 4121,
      "barrel": 4122,
      "beak": 4123,
      "usual": 4124,
      "Lego": 4125,
      "fluffy": 4126,
      "Bl": 4127,
      "Kim": 4128,
      "Toddy": 4129,
      "cuck": 4130,
      "cash": 4131,
      "dip": 4132,
      "ial": 4133,
      "val": 4134,
      "vine": 4135,
      "icle": 4136,
      "robber": 4137,
      "nets": 4138,
      "hers": 4139,
      "wax": 4140,
      "iled": 4141,
      "spade": 4142,
      "ladys": 4143,
      "muscle": 4144,
      "knocking": 4145,
      "napkin": 4146,
      "ribly": 4147,
      "squares": 4148,
      "Toby": 4149,
      "tricky": 4150,
      "bonk": 4151,
      "fishes": 4152,
      "beginning": 4153,
      "hamburger": 4154,
      "cucumber": 4155,
      "Justin": 4156,
      "Di": 4157,
      "fy": 4158,
      "jug": 4159,
      "tread": 4160,
      "wris": 4161,
      "thick": 4162,
      "ader": 4163,
      "adrum": 4164,
      "oft": 4165,
      "gedy": 4166,
      "tricycle": 4167,
      "zzle": 4168,
      "bangadrum": 4169,
      "paints": 4170,
      "cloud": 4171,
      "dollars": 4172,
      "jobs": 4173,
      "Coca": 4174,
      "scoop": 4175,
      "spinning": 4176,
      "raspberries": 4177,
      "Den": 4178,
      "Nick": 4179,
      "Pu": 4180,
      "ron": 4181,
      "gori": 4182,
      "stable": 4183,
      "iddle": 4184,
      "baked": 4185,
      "untie": 4186,
      "terribly": 4187,
      "team": 4188,
      "showed": 4189,
      "firetruck": 4190,
      "drops": 4191,
      "dropping": 4192,
      "Jacob": 4193,
      "splinter": 4194,
      "crossing": 4195,
      "Emma": 4196,
      "screws": 4197,
      "muffins": 4198,
      "Papa": 4199,
      "Mike": 4200,
      "weeds": 4201,
      "Sharon": 4202,
      "Bird": 4203,
      "Ray": 4204,
      "cling": 4205,
      "during": 4206,
      "smil": 4207,
      "vity": 4208,
      "lls": 4209,
      "haha": 4210,
      "bes": 4211,
      "beside": 4212,
      "thered": 4213,
      "allow": 4214,
      "irts": 4215,
      "rover": 4216,
      "butcher": 4217,
      "themselves": 4218,
      "polish": 4219,
      "speak": 4220,
      "rence": 4221,
      "chase": 4222,
      "ramp": 4223,
      "bandaid": 4224,
      "newspapers": 4225,
      "supermarket": 4226,
      "Jenko": 4227,
      "smiling": 4228,
      "Han": 4229,
      "ico": 4230,
      "ene": 4231,
      "wiped": 4232,
      "chicks": 4233,
      "almon": 4234,
      "although": 4235,
      "poke": 4236,
      "blind": 4237,
      "cata": 4238,
      "closet": 4239,
      "puff": 4240,
      "cord": 4241,
      "Beehive": 4242,
      "drag": 4243,
      "bats": 4244,
      "swings": 4245,
      "basketball": 4246,
      "crunching": 4247,
      "Cola": 4248,
      "centr": 4249,
      "decide": 4250,
      "laundry": 4251,
      "bulldozer": 4252,
      "sniffing": 4253,
      "wrist": 4254,
      "Ha": 4255,
      "chard": 4256,
      "num": 4257,
      "zoom": 4258,
      "zipper": 4259,
      "lollies": 4260,
      "bobble": 4261,
      "taco": 4262,
      "itty": 4263,
      "poon": 4264,
      "wheat": 4265,
      "women": 4266,
      "fil": 4267,
      "bert": 4268,
      "calls": 4269,
      "stands": 4270,
      "squashed": 4271,
      "mistake": 4272,
      "sive": 4273,
      "twist": 4274,
      "dessert": 4275,
      "indeed": 4276,
      "arrived": 4277,
      "Frog": 4278,
      "sleeves": 4279,
      "cuckoo": 4280,
      "Marm": 4281,
      "banged": 4282,
      "nood": 4283,
      "lery": 4284,
      "iders": 4285,
      "chris": 4286,
      "locks": 4287,
      "offic": 4288,
      "against": 4289,
      "spiders": 4290,
      "doggies": 4291,
      "barking": 4292,
      "marching": 4293,
      "sense": 4294,
      "giraffes": 4295,
      "melt": 4296,
      "Caro": 4297,
      "sweeping": 4298,
      "calf": 4299,
      "koala": 4300,
      "raspberry": 4301,
      "hedgeho": 4302,
      "valentine": 4303,
      "nearer": 4304,
      "Flo": 4305,
      "double": 4306,
      "gust": 4307,
      "hoops": 4308,
      "izz": 4309,
      "jumps": 4310,
      "kins": 4311,
      "nif": 4312,
      "pra": 4313,
      "stal": 4314,
      "cane": 4315,
      "outs": 4316,
      "bored": 4317,
      "mask": 4318,
      "lete": 4319,
      "chewing": 4320,
      "ille": 4321,
      "stood": 4322,
      "mous": 4323,
      "cud": 4324,
      "kitties": 4325,
      "counter": 4326,
      "jeep": 4327,
      "catching": 4328,
      "loose": 4329,
      "carried": 4330,
      "doughnut": 4331,
      "spend": 4332,
      "Ernie": 4333,
      "healthy": 4334,
      "Jesus": 4335,
      "bangadrumtime": 4336,
      "Duck": 4337,
      "Lo": 4338,
      "Scoop": 4339,
      "Tra": 4340,
      "cke": 4341,
      "loft": 4342,
      "tough": 4343,
      "ying": 4344,
      "lean": 4345,
      "advent": 4346,
      "costu": 4347,
      "cocoa": 4348,
      "cheers": 4349,
      "gage": 4350,
      "crust": 4351,
      "shoulder": 4352,
      "driven": 4353,
      "cupcakes": 4354,
      "prom": 4355,
      "single": 4356,
      "vanilla": 4357,
      "Sammy": 4358,
      "Georgi": 4359,
      "Peanut": 4360,
      "puzzles": 4361,
      "prints": 4362,
      "Ruby": 4363,
      "hawks": 4364,
      "Apple": 4365,
      "Pen": 4366,
      "Sep": 4367,
      "cred": 4368,
      "ssh": 4369,
      "letting": 4370,
      "tember": 4371,
      "shush": 4372,
      "bites": 4373,
      "cation": 4374,
      "arents": 4375,
      "dey": 4376,
      "torto": 4377,
      "bbie": 4378,
      "duckie": 4379,
      "ighth": 4380,
      "hunhunh": 4381,
      "bowls": 4382,
      "lids": 4383,
      "Beal": 4384,
      "bumpy": 4385,
      "tripped": 4386,
      "sniff": 4387,
      "sweat": 4388,
      "splashing": 4389,
      "pointed": 4390,
      "lambs": 4391,
      "Seth": 4392,
      "decoration": 4393,
      "syrup": 4394,
      "protect": 4395,
      "gallop": 4396,
      "Dizzy": 4397,
      "Marmite": 4398,
      "September": 4399,
      "Fe": 4400,
      "Stu": 4401,
      "Swee": 4402,
      "aut": 4403,
      "bing": 4404,
      "pitter": 4405,
      "sour": 4406,
      "thou": 4407,
      "erase": 4408,
      "soil": 4409,
      "ofty": 4410,
      "seek": 4411,
      "tage": 4412,
      "ripped": 4413,
      "checked": 4414,
      "buff": 4415,
      "buzzy": 4416,
      "diet": 4417,
      "grew": 4418,
      "tennis": 4419,
      "float": 4420,
      "drunk": 4421,
      "mint": 4422,
      "concentr": 4423,
      "bars": 4424,
      "March": 4425,
      "messing": 4426,
      "wedding": 4427,
      "salty": 4428,
      "prince": 4429,
      "kicking": 4430,
      "rushing": 4431,
      "passenger": 4432,
      "peeping": 4433,
      "disappeared": 4434,
      "vacation": 4435,
      "kissed": 4436,
      "Spider": 4437,
      "Bealby": 4438,
      "Black": 4439,
      "Super": 4440,
      "dick": 4441,
      "phe": 4442,
      "tar": 4443,
      "indy": 4444,
      "dock": 4445,
      "whatcha": 4446,
      "bered": 4447,
      "coins": 4448,
      "rage": 4449,
      "taping": 4450,
      "peaches": 4451,
      "paid": 4452,
      "timer": 4453,
      "stopping": 4454,
      "sues": 4455,
      "bbles": 4456,
      "machines": 4457,
      "slipped": 4458,
      "Joe": 4459,
      "Joey": 4460,
      "disgust": 4461,
      "strap": 4462,
      "brave": 4463,
      "filled": 4464,
      "raisin": 4465,
      "possib": 4466,
      "learning": 4467,
      "gorilla": 4468,
      "disgusting": 4469,
      "Gran": 4470,
      "Hat": 4471,
      "Jam": 4472,
      "Sus": 4473,
      "Scot": 4474,
      "cker": 4475,
      "emer": 4476,
      "gin": 4477,
      "ium": 4478,
      "nan": 4479,
      "nuh": 4480,
      "ubb": 4481,
      "tha": 4482,
      "upon": 4483,
      "washer": 4484,
      "indian": 4485,
      "earring": 4486,
      "meaning": 4487,
      "mini": 4488,
      "pooey": 4489,
      "Becca": 4490,
      "mixture": 4491,
      "knitting": 4492,
      "nappies": 4493,
      "blankets": 4494,
      "peanuts": 4495,
      "June": 4496,
      "Luc": 4497,
      "MacDonald": 4498,
      "lawnmower": 4499,
      "complete": 4500,
      "swallow": 4501,
      "neenaw": 4502,
      "mittens": 4503,
      "spicy": 4504,
      "officer": 4505,
      "emergen": 4506,
      "Doo": 4507,
      "Eric": 4508,
      "Jill": 4509,
      "Light": 4510,
      "Rag": 4511,
      "Ses": 4512,
      "brow": 4513,
      "mall": 4514,
      "nia": 4515,
      "wigg": 4516,
      "ond": 4517,
      "heck": 4518,
      "ickers": 4519,
      "tack": 4520,
      "wellies": 4521,
      "shame": 4522,
      "shaking": 4523,
      "sidewalk": 4524,
      "reamed": 4525,
      "smar": 4526,
      "hardly": 4527,
      "cious": 4528,
      "patch": 4529,
      "patter": 4530,
      "shouted": 4531,
      "diapers": 4532,
      "Grampa": 4533,
      "exercise": 4534,
      "McDonalds": 4535,
      "Sainsburys": 4536,
      "Leila": 4537,
      "Georgia": 4538,
      "thousand": 4539,
      "Raggedy": 4540,
      "Sesame": 4541,
      "Lofty": 4542,
      "Sal": 4543,
      "Veen": 4544,
      "Woo": 4545,
      "hitting": 4546,
      "loops": 4547,
      "wod": 4548,
      "wrench": 4549,
      "yarn": 4550,
      "zes": 4551,
      "umbo": 4552,
      "main": 4553,
      "storage": 4554,
      "waste": 4555,
      "roundabout": 4556,
      "hurrah": 4557,
      "barri": 4558,
      "polite": 4559,
      "pushchair": 4560,
      "ippy": 4561,
      "iolet": 4562,
      "athy": 4563,
      "twinkle": 4564,
      "scratched": 4565,
      "sprinkle": 4566,
      "Macdonald": 4567,
      "collected": 4568,
      "Janet": 4569,
      "Dora": 4570,
      "reversing": 4571,
      "vinegar": 4572,
      "Veena": 4573,
      "Mor": 4574,
      "hy": 4575,
      "ik": 4576,
      "non": 4577,
      "parents": 4578,
      "tling": 4579,
      "toad": 4580,
      "hoe": 4581,
      "adi": 4582,
      "cost": 4583,
      "temper": 4584,
      "shirts": 4585,
      "pail": 4586,
      "remem": 4587,
      "spare": 4588,
      "cowboys": 4589,
      "breaks": 4590,
      "ladybird": 4591,
      "dres": 4592,
      "difference": 4593,
      "Roman": 4594,
      "Naomi": 4595,
      "clue": 4596,
      "tickling": 4597,
      "jigsaws": 4598,
      "Dolly": 4599,
      "Paul": 4600,
      "Douglas": 4601,
      "confused": 4602,
      "promise": 4603,
      "tortoise": 4604,
      "possibly": 4605,
      "Lucille": 4606,
      "Ell": 4607,
      "Pil": 4608,
      "Tre": 4609,
      "app": 4610,
      "cla": 4611,
      "pou": 4612,
      "ues": 4613,
      "itself": 4614,
      "wipes": 4615,
      "chief": 4616,
      "forks": 4617,
      "packed": 4618,
      "nighttime": 4619,
      "bins": 4620,
      "march": 4621,
      "airy": 4622,
      "rides": 4623,
      "roads": 4624,
      "pressing": 4625,
      "scrub": 4626,
      "signs": 4627,
      "slept": 4628,
      "zero": 4629,
      "sneezing": 4630,
      "Daisy": 4631,
      "tablets": 4632,
      "teasing": 4633,
      "lamps": 4634,
      "oatmeal": 4635,
      "Puddle": 4636,
      "ckerel": 4637,
      "Jamie": 4638,
      "remembered": 4639,
      "Rob": 4640,
      "cts": 4641,
      "ili": 4642,
      "witches": 4643,
      "doh": 4644,
      "esca": 4645,
      "robe": 4646,
      "ount": 4647,
      "carton": 4648,
      "chocs": 4649,
      "eyebrow": 4650,
      "magnet": 4651,
      "waved": 4652,
      "beanbag": 4653,
      "Barbie": 4654,
      "reminds": 4655,
      "teaspoon": 4656,
      "Blue": 4657,
      "emergency": 4658,
      "Ko": 4659,
      "Wil": 4660,
      "bong": 4661,
      "french": 4662,
      "ini": 4663,
      "wease": 4664,
      "dose": 4665,
      "teletu": 4666,
      "mans": 4667,
      "storm": 4668,
      "waves": 4669,
      "mince": 4670,
      "piggies": 4671,
      "contro": 4672,
      "garlic": 4673,
      "Bobby": 4674,
      "proud": 4675,
      "iot": 4676,
      "wheelie": 4677,
      "problems": 4678,
      "Noah": 4679,
      "Indian": 4680,
      "snea": 4681,
      "Stuart": 4682,
      "Pilchard": 4683,
      "Push": 4684,
      "Tid": 4685,
      "bare": 4686,
      "dly": 4687,
      "ives": 4688,
      "lit": 4689,
      "ostr": 4690,
      "sso": 4691,
      "tart": 4692,
      "held": 4693,
      "ordin": 4694,
      "ersey": 4695,
      "irl": 4696,
      "ups": 4697,
      "chat": 4698,
      "rack": 4699,
      "taught": 4700,
      "ripe": 4701,
      "ami": 4702,
      "tuna": 4703,
      "pensive": 4704,
      "waist": 4705,
      "angles": 4706,
      "deal": 4707,
      "zzly": 4708,
      "bangs": 4709,
      "mars": 4710,
      "pancake": 4711,
      "setting": 4712,
      "hamster": 4713,
      "friendly": 4714,
      "curtain": 4715,
      "surf": 4716,
      "cracked": 4717,
      "envelopes": 4718,
      "whistles": 4719,
      "grill": 4720,
      "perfectly": 4721,
      "pract": 4722,
      "patient": 4723,
      "Richard": 4724,
      "catalog": 4725,
      "Lightyear": 4726,
      "wodar": 4727,
      "Tiddles": 4728,
      "Cor": 4729,
      "Grover": 4730,
      "San": 4731,
      "Violet": 4732,
      "cad": 4733,
      "ffe": 4734,
      "gh": 4735,
      "ilocks": 4736,
      "owie": 4737,
      "arr": 4738,
      "wires": 4739,
      "cafe": 4740,
      "hmallow": 4741,
      "mane": 4742,
      "explo": 4743,
      "expensive": 4744,
      "everyday": 4745,
      "harder": 4746,
      "picks": 4747,
      "sandpit": 4748,
      "sixty": 4749,
      "dizzy": 4750,
      "scratching": 4751,
      "calm": 4752,
      "Star": 4753,
      "Edward": 4754,
      "ponytail": 4755,
      "Franklin": 4756,
      "Goldilocks": 4757,
      "grocery": 4758,
      "tissues": 4759,
      "Murray": 4760,
      "marshmallow": 4761,
      "Snow": 4762,
      "au": 4763,
      "bumps": 4764,
      "cted": 4765,
      "owe": 4766,
      "thread": 4767,
      "heat": 4768,
      "asant": 4769,
      "ences": 4770,
      "lifor": 4771,
      "cans": 4772,
      "lower": 4773,
      "namon": 4774,
      "test": 4775,
      "gather": 4776,
      "sug": 4777,
      "pottie": 4778,
      "walrus": 4779,
      "stem": 4780,
      "sandbox": 4781,
      "grumpy": 4782,
      "dollies": 4783,
      "gym": 4784,
      "prick": 4785,
      "whisper": 4786,
      "crazy": 4787,
      "smashed": 4788,
      "managed": 4789,
      "Gramma": 4790,
      "Califor": 4791,
      "Kelly": 4792,
      "liquor": 4793,
      "stocking": 4794,
      "branch": 4795,
      "yawning": 4796,
      "Trevor": 4797,
      "California": 4798,
      "Wh": 4799,
      "date": 4800,
      "joking": 4801,
      "sush": 4802,
      "sled": 4803,
      "trot": 4804,
      "wro": 4805,
      "whing": 4806,
      "stink": 4807,
      "ashes": 4808,
      "uma": 4809,
      "edee": 4810,
      "lotion": 4811,
      "pose": 4812,
      "whenever": 4813,
      "sage": 4814,
      "manners": 4815,
      "imme": 4816,
      "chopping": 4817,
      "ducky": 4818,
      "farmers": 4819,
      "diggers": 4820,
      "loop": 4821,
      "burger": 4822,
      "burgl": 4823,
      "magnets": 4824,
      "bunnies": 4825,
      "Station": 4826,
      "popsicle": 4827,
      "electricity": 4828,
      "cinnamon": 4829,
      "sushi": 4830,
      "wrote": 4831,
      "Les": 4832,
      "Oscar": 4833,
      "vil": 4834,
      "thony": 4835,
      "int": 4836,
      "separ": 4837,
      "vember": 4838,
      "alls": 4839,
      "sale": 4840,
      "pairs": 4841,
      "brand": 4842,
      "ately": 4843,
      "apric": 4844,
      "apron": 4845,
      "headache": 4846,
      "finally": 4847,
      "poos": 4848,
      "marks": 4849,
      "booboo": 4850,
      "farty": 4851,
      "puppies": 4852,
      "spaces": 4853,
      "elions": 4854,
      "learned": 4855,
      "rhino": 4856,
      "November": 4857,
      "slippery": 4858,
      "scale": 4859,
      "udder": 4860,
      "dandelions": 4861,
      "Spiderman": 4862,
      "Koala": 4863,
      "Ear": 4864,
      "Jane": 4865,
      "lighth": 4866,
      "mor": 4867,
      "swa": 4868,
      "tah": 4869,
      "via": 4870,
      "zub": 4871,
      "ret": 4872,
      "reco": 4873,
      "anga": 4874,
      "vement": 4875,
      "ady": 4876,
      "coach": 4877,
      "logs": 4878,
      "boiling": 4879,
      "oulder": 4880,
      "phant": 4881,
      "dryer": 4882,
      "sorted": 4883,
      "spor": 4884,
      "expe": 4885,
      "noses": 4886,
      "blown": 4887,
      "cycling": 4888,
      "fudge": 4889,
      "joke": 4890,
      "surfing": 4891,
      "racecar": 4892,
      "peeling": 4893,
      "attached": 4894,
      "captain": 4895,
      "slugs": 4896,
      "service": 4897,
      "frame": 4898,
      "phew": 4899,
      "lighthouse": 4900,
      "Bur": 4901,
      "hhm": 4902,
      "hick": 4903,
      "lane": 4904,
      "mug": 4905,
      "mkay": 4906,
      "tut": 4907,
      "uary": 4908,
      "inv": 4909,
      "hea": 4910,
      "hero": 4911,
      "ison": 4912,
      "leen": 4913,
      "utch": 4914,
      "cannot": 4915,
      "uplo": 4916,
      "bathing": 4917,
      "camper": 4918,
      "bothered": 4919,
      "sheet": 4920,
      "pleasant": 4921,
      "odd": 4922,
      "worth": 4923,
      "iley": 4924,
      "ette": 4925,
      "talks": 4926,
      "cub": 4927,
      "straws": 4928,
      "knickers": 4929,
      "collar": 4930,
      "Deedee": 4931,
      "shells": 4932,
      "January": 4933,
      "scrape": 4934,
      "petals": 4935,
      "poured": 4936,
      "ordinary": 4937,
      "recog": 4938,
      "Fizz": 4939,
      "Tony": 4940,
      "aunt": 4941,
      "cous": 4942,
      "drain": 4943,
      "soda": 4944,
      "bomb": 4945,
      "power": 4946,
      "cara": 4947,
      "carto": 4948,
      "shy": 4949,
      "packets": 4950,
      "trapped": 4951,
      "pens": 4952,
      "drip": 4953,
      "holds": 4954,
      "marble": 4955,
      "purpose": 4956,
      "drying": 4957,
      "Anna": 4958,
      "Anthony": 4959,
      "musical": 4960,
      "tongs": 4961,
      "fairly": 4962,
      "beebabeeba": 4963,
      "melted": 4964,
      "bruary": 4965,
      "balance": 4966,
      "pipes": 4967,
      "neighbors": 4968,
      "customer": 4969,
      "Peanuts": 4970,
      "February": 4971,
      "Wilbur": 4972,
      "recogni": 4973,
      "Ari": 4974,
      "Agra": 4975,
      "Cal": 4976,
      "Dick": 4977,
      "Ellie": 4978,
      "Red": 4979,
      "Sky": 4980,
      "Wils": 4981,
      "Zoe": 4982,
      "dummy": 4983,
      "dumb": 4984,
      "pal": 4985,
      "idi": 4986,
      "umn": 4987,
      "gots": 4988,
      "pockets": 4989,
      "pavement": 4990,
      "elbow": 4991,
      "month": 4992,
      "creams": 4993,
      "speed": 4994,
      "seventy": 4995,
      "smelling": 4996,
      "tickles": 4997,
      "glu": 4998,
      "alace": 4999,
      "seats": 5000,
      "jail": 5001,
      "bandage": 5002,
      "cottage": 5003,
      "lemons": 5004,
      "fairy": 5005,
      "duvet": 5006,
      "packing": 5007,
      "motorbike": 5008,
      "firefighters": 5009,
      "dreams": 5010,
      "questions": 5011,
      "burned": 5012,
      "attach": 5013,
      "killed": 5014,
      "possible": 5015,
      "Platt": 5016,
      "hedgehog": 5017,
      "smarties": 5018,
      "Wilson": 5019,
      "awhile": 5020,
      "pins": 5021,
      "vey": 5022,
      "meas": 5023,
      "wen": 5024,
      "icles": 5025,
      "wherever": 5026,
      "plum": 5027,
      "loved": 5028,
      "sorting": 5029,
      "moves": 5030,
      "duster": 5031,
      "pans": 5032,
      "scram": 5033,
      "beetle": 5034,
      "tinsel": 5035,
      "rubbing": 5036,
      "peepo": 5037,
      "fighter": 5038,
      "laying": 5039,
      "jama": 5040,
      "Judy": 5041,
      "aeroplanes": 5042,
      "mailman": 5043,
      "stretch": 5044,
      "bonfire": 5045,
      "rescu": 5046,
      "mountains": 5047,
      "weights": 5048,
      "vitamin": 5049,
      "Park": 5050,
      "completely": 5051,
      "practice": 5052,
      "suggest": 5053,
      "Biff": 5054,
      "Cle": 5055,
      "Hor": 5056,
      "Hood": 5057,
      "Liam": 5058,
      "Tiki": 5059,
      "cting": 5060,
      "ians": 5061,
      "iator": 5062,
      "jars": 5063,
      "yle": 5064,
      "web": 5065,
      "yea": 5066,
      "stinky": 5067,
      "lily": 5068,
      "donut": 5069,
      "robot": 5070,
      "outfit": 5071,
      "boss": 5072,
      "model": 5073,
      "pebbles": 5074,
      "wore": 5075,
      "needle": 5076,
      "kings": 5077,
      "budle": 5078,
      "prefer": 5079,
      "cheek": 5080,
      "cheeks": 5081,
      "stepping": 5082,
      "steering": 5083,
      "anks": 5084,
      "walls": 5085,
      "cardboard": 5086,
      "bashed": 5087,
      "drawers": 5088,
      "landing": 5089,
      "freight": 5090,
      "twice": 5091,
      "sleigh": 5092,
      "hens": 5093,
      "radiator": 5094,
      "Greggy": 5095,
      "Eddy": 5096,
      "pretzels": 5097,
      "scales": 5098,
      "characters": 5099,
      "Betty": 5100,
      "muscles": 5101,
      "Elliot": 5102,
      "teletubbies": 5103,
      "ostrich": 5104,
      "liquorice": 5105,
      "Plattford": 5106,
      "Dis": 5107,
      "Goo": 5108,
      "It": 5109,
      "cers": 5110,
      "giggle": 5111,
      "tad": 5112,
      "tum": 5113,
      "vio": 5114,
      "tot": 5115,
      "ooey": 5116,
      "icular": 5117,
      "coal": 5118,
      "copy": 5119,
      "roy": 5120,
      "bomber": 5121,
      "momm": 5122,
      "tipping": 5123,
      "abouts": 5124,
      "tricks": 5125,
      "parking": 5126,
      "haircut": 5127,
      "ilda": 5128,
      "breathe": 5129,
      "steth": 5130,
      "forever": 5131,
      "wins": 5132,
      "Dada": 5133,
      "particular": 5134,
      "gravy": 5135,
      "Patrick": 5136,
      "oppo": 5137,
      "vans": 5138,
      "dingaling": 5139,
      "burnt": 5140,
      "buildings": 5141,
      "brace": 5142,
      "brakes": 5143,
      "scarecrow": 5144,
      "bagels": 5145,
      "strip": 5146,
      "Coco": 5147,
      "guns": 5148,
      "Lucy": 5149,
      "cabbage": 5150,
      "golden": 5151,
      "holidays": 5152,
      "Barb": 5153,
      "Frances": 5154,
      "noodles": 5155,
      "control": 5156,
      "waistcoat": 5157,
      "Can": 5158,
      "Hele": 5159,
      "Spa": 5160,
      "aids": 5161,
      "cis": 5162,
      "fry": 5163,
      "fuss": 5164,
      "gimme": 5165,
      "owed": 5166,
      "besides": 5167,
      "note": 5168,
      "whereabouts": 5169,
      "wanting": 5170,
      "poms": 5171,
      "blink": 5172,
      "horrid": 5173,
      "ggins": 5174,
      "grate": 5175,
      "Marty": 5176,
      "grows": 5177,
      "furry": 5178,
      "further": 5179,
      "dull": 5180,
      "tasted": 5181,
      "loading": 5182,
      "bouncing": 5183,
      "instruments": 5184,
      "geese": 5185,
      "Norman": 5186,
      "Goggins": 5187,
      "whales": 5188,
      "costume": 5189,
      "Blackpool": 5190,
      "marshmallows": 5191,
      "leenex": 5192,
      "stethos": 5193,
      "Amer": 5194,
      "Fo": 5195,
      "Huck": 5196,
      "Octo": 5197,
      "Too": 5198,
      "Wee": 5199,
      "cries": 5200,
      "fries": 5201,
      "ikes": 5202,
      "mould": 5203,
      "nin": 5204,
      "za": 5205,
      "ante": 5206,
      "atten": 5207,
      "hare": 5208,
      "kee": 5209,
      "alou": 5210,
      "moth": 5211,
      "mosqu": 5212,
      "tractors": 5213,
      "bushes": 5214,
      "bled": 5215,
      "fireplace": 5216,
      "watermelon": 5217,
      "drank": 5218,
      "Popp": 5219,
      "steal": 5220,
      "spea": 5221,
      "uffy": 5222,
      "badges": 5223,
      "footballs": 5224,
      "hugging": 5225,
      "nicer": 5226,
      "covers": 5227,
      "Steve": 5228,
      "swallowed": 5229,
      "pompoms": 5230,
      "tanker": 5231,
      "nectar": 5232,
      "Shem": 5233,
      "almond": 5234,
      "Superman": 5235,
      "catalogue": 5236,
      "stethoscope": 5237,
      "October": 5238,
      "mosquit": 5239,
      "Cris": 5240,
      "Dri": 5241,
      "Dumbo": 5242,
      "Kanga": 5243,
      "Ry": 5244,
      "Whis": 5245,
      "fus": 5246,
      "fanta": 5247,
      "gan": 5248,
      "lou": 5249,
      "munk": 5250,
      "wrest": 5251,
      "zard": 5252,
      "anno": 5253,
      "overalls": 5254,
      "mmhhm": 5255,
      "sult": 5256,
      "peoples": 5257,
      "pickle": 5258,
      "beakers": 5259,
      "Marvin": 5260,
      "scri": 5261,
      "rend": 5262,
      "knives": 5263,
      "pinched": 5264,
      "teachers": 5265,
      "crackle": 5266,
      "hosepipe": 5267,
      "iffy": 5268,
      "prize": 5269,
      "interested": 5270,
      "Chester": 5271,
      "disappear": 5272,
      "Francis": 5273,
      "soldier": 5274,
      "sliding": 5275,
      "Darth": 5276,
      "Florence": 5277,
      "Scott": 5278,
      "bracelet": 5279,
      "fantastic": 5280,
      "Cap": 5281,
      "Reve": 5282,
      "Sister": 5283,
      "Terry": 5284,
      "Vader": 5285,
      "dep": 5286,
      "palace": 5287,
      "anna": 5288,
      "ata": 5289,
      "sets": 5290,
      "leo": 5291,
      "whats": 5292,
      "hoppy": 5293,
      "nowhere": 5294,
      "canoe": 5295,
      "robin": 5296,
      "nal": 5297,
      "shelves": 5298,
      "iest": 5299,
      "tag": 5300,
      "poison": 5301,
      "uel": 5302,
      "redi": 5303,
      "shove": 5304,
      "choke": 5305,
      "teaching": 5306,
      "underpants": 5307,
      "eled": 5308,
      "ladybugs": 5309,
      "Daddad": 5310,
      "settee": 5311,
      "Heidi": 5312,
      "sharpen": 5313,
      "twis": 5314,
      "tubby": 5315,
      "passed": 5316,
      "hoop": 5317,
      "sprouts": 5318,
      "pennys": 5319,
      "crawling": 5320,
      "oats": 5321,
      "liquid": 5322,
      "uniform": 5323,
      "snuggle": 5324,
      "Elephant": 5325,
      "tacos": 5326,
      "Salty": 5327,
      "temperature": 5328,
      "weasel": 5329,
      "Leslie": 5330,
      "spaceship": 5331,
      "rhinocer": 5332,
      "alouette": 5333,
      "Reverend": 5334,
      "Kier": 5335,
      "Mel": 5336,
      "Plu": 5337,
      "ager": 5338,
      "cum": 5339,
      "ctions": 5340,
      "dal": 5341,
      "lug": 5342,
      "mit": 5343,
      "wink": 5344,
      "outh": 5345,
      "beth": 5346,
      "rode": 5347,
      "sher": 5348,
      "peppers": 5349,
      "whoever": 5350,
      "playground": 5351,
      "quicker": 5352,
      "blouse": 5353,
      "pennies": 5354,
      "angel": 5355,
      "comfy": 5356,
      "dripping": 5357,
      "piglet": 5358,
      "fishy": 5359,
      "pickles": 5360,
      "grano": 5361,
      "polar": 5362,
      "Maine": 5363,
      "scene": 5364,
      "sheeps": 5365,
      "lifted": 5366,
      "microwave": 5367,
      "butterflys": 5368,
      "laughed": 5369,
      "lesson": 5370,
      "view": 5371,
      "centre": 5372,
      "grapefruit": 5373,
      "weighing": 5374,
      "skipped": 5375,
      "screaming": 5376,
      "windmills": 5377,
      "Kimber": 5378,
      "Calpol": 5379,
      "attention": 5380,
      "leopar": 5381,
      "Pluto": 5382,
      "granola": 5383,
      "All": 5384,
      "Min": 5385,
      "dit": 5386,
      "dreamed": 5387,
      "iver": 5388,
      "othy": 5389,
      "pun": 5390,
      "vehic": 5391,
      "doc": 5392,
      "cockerel": 5393,
      "wire": 5394,
      "notes": 5395,
      "leton": 5396,
      "tered": 5397,
      "filling": 5398,
      "fog": 5399,
      "deh": 5400,
      "adee": 5401,
      "piglets": 5402,
      "constru": 5403,
      "mouthful": 5404,
      "bathtub": 5405,
      "brings": 5406,
      "bikes": 5407,
      "drivers": 5408,
      "fingernails": 5409,
      "burp": 5410,
      "serve": 5411,
      "chipmunk": 5412,
      "began": 5413,
      "sailboat": 5414,
      "saved": 5415,
      "print": 5416,
      "Ariel": 5417,
      "paddle": 5418,
      "hawk": 5419,
      "Dorothy": 5420,
      "Katie": 5421,
      "stalk": 5422,
      "recognize": 5423,
      "Kimberly": 5424,
      "Ken": 5425,
      "Mart": 5426,
      "Miles": 5427,
      "Oli": 5428,
      "Ren": 5429,
      "Tanta": 5430,
      "bitten": 5431,
      "glove": 5432,
      "muck": 5433,
      "inse": 5434,
      "recycling": 5435,
      "weird": 5436,
      "bent": 5437,
      "wibble": 5438,
      "gotted": 5439,
      "useful": 5440,
      "pod": 5441,
      "pegs": 5442,
      "laces": 5443,
      "trap": 5444,
      "floating": 5445,
      "Pope": 5446,
      "sharks": 5447,
      "stripe": 5448,
      "doughnuts": 5449,
      "covering": 5450,
      "eee": 5451,
      "motorway": 5452,
      "beebaa": 5453,
      "Johnny": 5454,
      "basement": 5455,
      "hooks": 5456,
      "sailing": 5457,
      "porch": 5458,
      "caterpillars": 5459,
      "Rufus": 5460,
      "Eddie": 5461,
      "lipstick": 5462,
      "Bailey": 5463,
      "mushrooms": 5464,
      "Amanda": 5465,
      "Batman": 5466,
      "damage": 5467,
      "Drive": 5468,
      "louder": 5469,
      "rhinoceros": 5470,
      "luggage": 5471,
      "Renee": 5472,
      "Kathy": 5473,
      "Rose": 5474,
      "Tr": 5475,
      "fir": 5476,
      "kicked": 5477,
      "nat": 5478,
      "wok": 5479,
      "repair": 5480,
      "ition": 5481,
      "sels": 5482,
      "goof": 5483,
      "lee": 5484,
      "stroller": 5485,
      "hopping": 5486,
      "icket": 5487,
      "itted": 5488,
      "woken": 5489,
      "carries": 5490,
      "aboo": 5491,
      "chef": 5492,
      "shadow": 5493,
      "bleach": 5494,
      "stomach": 5495,
      "breast": 5496,
      "mints": 5497,
      "mouths": 5498,
      "mater": 5499,
      "bark": 5500,
      "airplanes": 5501,
      "Marks": 5502,
      "chers": 5503,
      "Pee": 5504,
      "Engl": 5505,
      "Nemo": 5506,
      "Chee": 5507,
      "rhymes": 5508,
      "throwed": 5509,
      "recently": 5510,
      "Joshua": 5511,
      "autumn": 5512,
      "Granny": 5513,
      "clapping": 5514,
      "eyebrows": 5515,
      "surfboard": 5516,
      "Cl": 5517,
      "Eile": 5518,
      "Eliz": 5519,
      "Hall": 5520,
      "Hubb": 5521,
      "Qu": 5522,
      "Shop": 5523,
      "abeth": 5524,
      "buses": 5525,
      "munch": 5526,
      "wicked": 5527,
      "search": 5528,
      "leap": 5529,
      "lia": 5530,
      "coin": 5531,
      "cobra": 5532,
      "cozy": 5533,
      "coaches": 5534,
      "baw": 5535,
      "loaf": 5536,
      "bob": 5537,
      "forwards": 5538,
      "mop": 5539,
      "undo": 5540,
      "pox": 5541,
      "ships": 5542,
      "crush": 5543,
      "ggle": 5544,
      "ashing": 5545,
      "shopkeeper": 5546,
      "Roy": 5547,
      "answe": 5548,
      "slipping": 5549,
      "price": 5550,
      "magnif": 5551,
      "whoowhoo": 5552,
      "turtles": 5553,
      "tidied": 5554,
      "vol": 5555,
      "Holly": 5556,
      "film": 5557,
      "mousse": 5558,
      "White": 5559,
      "separate": 5560,
      "scrambled": 5561,
      "opposite": 5562,
      "construction": 5563,
      "Eileen": 5564,
      "Hubbard": 5565,
      "Cas": 5566,
      "Cindy": 5567,
      "Rac": 5568,
      "Tadi": 5569,
      "dyou": 5570,
      "ets": 5571,
      "gigg": 5572,
      "jour": 5573,
      "kie": 5574,
      "rang": 5575,
      "vies": 5576,
      "zi": 5577,
      "attic": 5578,
      "isys": 5579,
      "gook": 5580,
      "kety": 5581,
      "soa": 5582,
      "soggy": 5583,
      "area": 5584,
      "und": 5585,
      "trum": 5586,
      "fault": 5587,
      "firework": 5588,
      "shoulders": 5589,
      "chomp": 5590,
      "lottery": 5591,
      "stepped": 5592,
      "posted": 5593,
      "daddies": 5594,
      "dive": 5595,
      "diam": 5596,
      "fuzzy": 5597,
      "dollar": 5598,
      "mood": 5599,
      "Jessica": 5600,
      "July": 5601,
      "clowns": 5602,
      "planted": 5603,
      "sells": 5604,
      "younger": 5605,
      "Jenny": 5606,
      "Dave": 5607,
      "arrive": 5608,
      "company": 5609,
      "cranes": 5610,
      "giddyup": 5611,
      "Streetname": 5612,
      "Thanks": 5613,
      "heaven": 5614,
      "Captain": 5615,
      "Kiera": 5616,
      "Elizabeth": 5617,
      "Thanksgiving": 5618,
      "Bus": 5619,
      "Hel": 5620,
      "Hums": 5621,
      "Kay": 5622,
      "Roo": 5623,
      "Val": 5624,
      "ama": 5625,
      "achoo": 5626,
      "bick": 5627,
      "bbling": 5628,
      "eel": 5629,
      "ivity": 5630,
      "mies": 5631,
      "rif": 5632,
      "slo": 5633,
      "tat": 5634,
      "wl": 5635,
      "theater": 5636,
      "rela": 5637,
      "heels": 5638,
      "ingredi": 5639,
      "tops": 5640,
      "dor": 5641,
      "dodo": 5642,
      "doctors": 5643,
      "below": 5644,
      "polo": 5645,
      "peg": 5646,
      "celery": 5647,
      "bras": 5648,
      "bleep": 5649,
      "worse": 5650,
      "bookcase": 5651,
      "orns": 5652,
      "crad": 5653,
      "artist": 5654,
      "mustard": 5655,
      "underwear": 5656,
      "snails": 5657,
      "ffs": 5658,
      "ended": 5659,
      "policemen": 5660,
      "flags": 5661,
      "flames": 5662,
      "beets": 5663,
      "funnel": 5664,
      "awfully": 5665,
      "Anne": 5666,
      "paying": 5667,
      "goldfish": 5668,
      "sprink": 5669,
      "coughing": 5670,
      "decorating": 5671,
      "gramma": 5672,
      "quarters": 5673,
      "charge": 5674,
      "following": 5675,
      "practic": 5676,
      "meeting": 5677,
      "Liz": 5678,
      "barrier": 5679,
      "grilled": 5680,
      "violin": 5681,
      "mommies": 5682,
      "Barbara": 5683,
      "Popeye": 5684,
      "Humsah": 5685,
      "Bad": 5686,
      "CB": 5687,
      "Cen": 5688,
      "Ger": 5689,
      "Jose": 5690,
      "Muck": 5691,
      "dou": 5692,
      "rek": 5693,
      "yers": 5694,
      "orig": 5695,
      "aret": 5696,
      "boiled": 5697,
      "movies": 5698,
      "carve": 5699,
      "blen": 5700,
      "cricket": 5701,
      "ugust": 5702,
      "spout": 5703,
      "sings": 5704,
      "grrr": 5705,
      "sieve": 5706,
      "dire": 5707,
      "Rolly": 5708,
      "wallpaper": 5709,
      "teeny": 5710,
      "splashed": 5711,
      "whistling": 5712,
      "Sean": 5713,
      "smashing": 5714,
      "mamma": 5715,
      "Stan": 5716,
      "Nanny": 5717,
      "peekaboo": 5718,
      "lizard": 5719,
      "concentrating": 5720,
      "dresser": 5721,
      "ffet": 5722,
      "apricot": 5723,
      "swap": 5724,
      "Helicopter": 5725,
      "relax": 5726,
      "cradle": 5727,
      "August": 5728,
      "Chop": 5729,
      "Du": 5730,
      "Summer": 5731,
      "ol": 5732,
      "seals": 5733,
      "ander": 5734,
      "sten": 5735,
      "rag": 5736,
      "cau": 5737,
      "tears": 5738,
      "ounces": 5739,
      "mantha": 5740,
      "backside": 5741,
      "hairbrush": 5742,
      "clop": 5743,
      "angled": 5744,
      "cru": 5745,
      "combin": 5746,
      "stache": 5747,
      "puddle": 5748,
      "tablecloth": 5749,
      "owls": 5750,
      "duckies": 5751,
      "eggy": 5752,
      "flake": 5753,
      "hanger": 5754,
      "tickly": 5755,
      "burning": 5756,
      "disco": 5757,
      "mist": 5758,
      "napkins": 5759,
      "dumptruck": 5760,
      "flatten": 5761,
      "muddy": 5762,
      "Claire": 5763,
      "brothers": 5764,
      "folding": 5765,
      "Samantha": 5766,
      "study": 5767,
      "peace": 5768,
      "exercises": 5769,
      "decorations": 5770,
      "whispering": 5771,
      "Ryan": 5772,
      "material": 5773,
      "Cr": 5774,
      "Candy": 5775,
      "Hilda": 5776,
      "Kit": 5777,
      "Nico": 5778,
      "Owl": 5779,
      "Tur": 5780,
      "dare": 5781,
      "dling": 5782,
      "gates": 5783,
      "knight": 5784,
      "lump": 5785,
      "oy": 5786,
      "olives": 5787,
      "runny": 5788,
      "sill": 5789,
      "vi": 5790,
      "inches": 5791,
      "lle": 5792,
      "selling": 5793,
      "ston": 5794,
      "ener": 5795,
      "address": 5796,
      "nage": 5797,
      "tale": 5798,
      "thingy": 5799,
      "goods": 5800,
      "reads": 5801,
      "shade": 5802,
      "quit": 5803,
      "bleed": 5804,
      "hairy": 5805,
      "helpful": 5806,
      "broked": 5807,
      "delive": 5808,
      "cuts": 5809,
      "spoil": 5810,
      "daisys": 5811,
      "tinker": 5812,
      "stuffed": 5813,
      "triangles": 5814,
      "message": 5815,
      "atory": 5816,
      "chains": 5817,
      "curly": 5818,
      "flush": 5819,
      "microphones": 5820,
      "hoping": 5821,
      "spilling": 5822,
      "desig": 5823,
      "decorated": 5824,
      "crabs": 5825,
      "trowel": 5826,
      "Piggy": 5827,
      "magazines": 5828,
      "snotty": 5829,
      "snotsnot": 5830,
      "christmas": 5831,
      "prawn": 5832,
      "Doodle": 5833,
      "Burnage": 5834,
      "nativity": 5835,
      "ingredients": 5836,
      "Badger": 5837,
      "Far": 5838,
      "Ham": 5839,
      "Lane": 5840,
      "Qua": 5841,
      "Su": 5842,
      "Tw": 5843,
      "Tree": 5844,
      "bt": 5845,
      "bba": 5846,
      "elion": 5847,
      "fences": 5848,
      "hits": 5849,
      "ldow": 5850,
      "mi": 5851,
      "voom": 5852,
      "isha": 5853,
      "llas": 5854,
      "stiff": 5855,
      "esdays": 5856,
      "lies": 5857,
      "cocon": 5858,
      "chance": 5859,
      "somehow": 5860,
      "didldow": 5861,
      "peck": 5862,
      "ppity": 5863,
      "lazy": 5864,
      "penis": 5865,
      "willn": 5866,
      "shock": 5867,
      "worn": 5868,
      "happily": 5869,
      "acti": 5870,
      "desert": 5871,
      "walker": 5872,
      "monarch": 5873,
      "stest": 5874,
      "moustache": 5875,
      "concer": 5876,
      "mending": 5877,
      "barbe": 5878,
      "eighty": 5879,
      "splish": 5880,
      "bulb": 5881,
      "seaweed": 5882,
      "meals": 5883,
      "mudge": 5884,
      "gentleman": 5885,
      "roosters": 5886,
      "Ruth": 5887,
      "attack": 5888,
      "lobsters": 5889,
      "ghosts": 5890,
      "servatory": 5891,
      "squeaky": 5892,
      "transm": 5893,
      "damaged": 5894,
      "Mormor": 5895,
      "Clever": 5896,
      "Disney": 5897,
      "Huckle": 5898,
      "mmhhmm": 5899,
      "sultanas": 5900,
      "Olivia": 5901,
      "Rachael": 5902,
      "Centre": 5903,
      "doubt": 5904,
      "delivered": 5905,
      "coconut": 5906,
      "Mersey": 5907,
      "Sto": 5908,
      "ffa": 5909,
      "nana": 5910,
      "ome": 5911,
      "zou": 5912,
      "rece": 5913,
      "refle": 5914,
      "heel": 5915,
      "mets": 5916,
      "mering": 5917,
      "utter": 5918,
      "ution": 5919,
      "hoses": 5920,
      "rod": 5921,
      "rots": 5922,
      "chu": 5923,
      "someday": 5924,
      "lophone": 5925,
      "rails": 5926,
      "uhs": 5927,
      "pell": 5928,
      "cell": 5929,
      "inet": 5930,
      "taked": 5931,
      "facing": 5932,
      "helmets": 5933,
      "sub": 5934,
      "talcum": 5935,
      "creature": 5936,
      "Chicken": 5937,
      "winner": 5938,
      "winning": 5939,
      "beaver": 5940,
      "hangers": 5941,
      "boards": 5942,
      "driveway": 5943,
      "counted": 5944,
      "jeans": 5945,
      "blows": 5946,
      "ios": 5947,
      "signal": 5948,
      "fifth": 5949,
      "stirring": 5950,
      "stret": 5951,
      "Fredrick": 5952,
      "normal": 5953,
      "railroad": 5954,
      "swam": 5955,
      "cranberry": 5956,
      "kisses": 5957,
      "Louise": 5958,
      "ducklings": 5959,
      "character": 5960,
      "xylophone": 5961,
      "credible": 5962,
      "pitterpatter": 5963,
      "MacDonalds": 5964,
      "wiggly": 5965,
      "Macdonalds": 5966,
      "cadabra": 5967,
      "tahini": 5968,
      "dingalingaling": 5969,
      "mosquito": 5970,
      "diamond": 5971,
      "stenc": 5972,
      "BC": 5973,
      "Con": 5974,
      "Cha": 5975,
      "Clif": 5976,
      "Gab": 5977,
      "Mal": 5978,
      "Rick": 5979,
      "Spenc": 5980,
      "Wor": 5981,
      "bum": 5982,
      "ckey": 5983,
      "fab": 5984,
      "junk": 5985,
      "kab": 5986,
      "rash": 5987,
      "sim": 5988,
      "tumble": 5989,
      "iness": 5990,
      "rewind": 5991,
      "hopped": 5992,
      "chor": 5993,
      "baa": 5994,
      "fortun": 5995,
      "tabby": 5996,
      "unusual": 5997,
      "pajama": 5998,
      "fetch": 5999,
      "babys": 6000,
      "tug": 6001,
      "mmm": 6002,
      "stair": 6003,
      "mightn": 6004,
      "nightgown": 6005,
      "explain": 6006,
      "ruler": 6007,
      "newsa": 6008,
      "waited": 6009,
      "convers": 6010,
      "cubes": 6011,
      "pulls": 6012,
      "finishing": 6013,
      "gardening": 6014,
      "Joanna": 6015,
      "whoopsie": 6016,
      "suitcases": 6017,
      "dumped": 6018,
      "crashing": 6019,
      "towels": 6020,
      "dub": 6021,
      "lessons": 6022,
      "alligators": 6023,
      "pork": 6024,
      "tablet": 6025,
      "sucking": 6026,
      "grizzly": 6027,
      "lampshad": 6028,
      "cousin": 6029,
      "glued": 6030,
      "scribble": 6031,
      "leopard": 6032,
      "journey": 6033,
      "direction": 6034,
      "Farmer": 6035,
      "Clifford": 6036,
      "Spencers": 6037,
      "conversation": 6038,
      "Aar": 6039,
      "Bir": 6040,
      "Cra": 6041,
      "Dig": 6042,
      "Minnie": 6043,
      "Miffy": 6044,
      "On": 6045,
      "Peggy": 6046,
      "ella": 6047,
      "miles": 6048,
      "olie": 6049,
      "shave": 6050,
      "twins": 6051,
      "ula": 6052,
      "vom": 6053,
      "wre": 6054,
      "onions": 6055,
      "cano": 6056,
      "donkeys": 6057,
      "losing": 6058,
      "moments": 6059,
      "tire": 6060,
      "wobbly": 6061,
      "inder": 6062,
      "shaving": 6063,
      "tuba": 6064,
      "stole": 6065,
      "closes": 6066,
      "finds": 6067,
      "Pocket": 6068,
      "express": 6069,
      "ruff": 6070,
      "everytime": 6071,
      "tables": 6072,
      "pickya": 6073,
      "blosso": 6074,
      "smoking": 6075,
      "grated": 6076,
      "storys": 6077,
      "graham": 6078,
      "correct": 6079,
      "bottoms": 6080,
      "clu": 6081,
      "jello": 6082,
      "ticktock": 6083,
      "grandmother": 6084,
      "hammering": 6085,
      "mummum": 6086,
      "straighten": 6087,
      "screen": 6088,
      "shoots": 6089,
      "Coke": 6090,
      "taller": 6091,
      "Harvey": 6092,
      "Steven": 6093,
      "legos": 6094,
      "piles": 6095,
      "Ark": 6096,
      "stream": 6097,
      "duhduh": 6098,
      "campfire": 6099,
      "arrows": 6100,
      "rectangle": 6101,
      "buffers": 6102,
      "caravan": 6103,
      "anteater": 6104,
      "lampshade": 6105,
      "Aaron": 6106,
      "Craig": 6107,
      "pickyaup": 6108,
      "Bod": 6109,
      "Bram": 6110,
      "Die": 6111,
      "For": 6112,
      "ado": 6113,
      "aye": 6114,
      "boulder": 6115,
      "cour": 6116,
      "lone": 6117,
      "vator": 6118,
      "heit": 6119,
      "stat": 6120,
      "strea": 6121,
      "becca": 6122,
      "organ": 6123,
      "igan": 6124,
      "hockey": 6125,
      "outa": 6126,
      "gotten": 6127,
      "plums": 6128,
      "mash": 6129,
      "tips": 6130,
      "ode": 6131,
      "watches": 6132,
      "troo": 6133,
      "bubbly": 6134,
      "frost": 6135,
      "handbag": 6136,
      "pigtails": 6137,
      "pooh": 6138,
      "surely": 6139,
      "lighter": 6140,
      "fasten": 6141,
      "matching": 6142,
      "raincoat": 6143,
      "scrib": 6144,
      "diving": 6145,
      "smallest": 6146,
      "badger": 6147,
      "Bobbie": 6148,
      "gesund": 6149,
      "Beth": 6150,
      "patting": 6151,
      "moose": 6152,
      "miser": 6153,
      "ourselves": 6154,
      "duroy": 6155,
      "loaded": 6156,
      "saucers": 6157,
      "fields": 6158,
      "frightening": 6159,
      "kidding": 6160,
      "occas": 6161,
      "ribbons": 6162,
      "snoring": 6163,
      "Rebecca": 6164,
      "Corduroy": 6165,
      "cartoons": 6166,
      "rescued": 6167,
      "Horton": 6168,
      "wrestle": 6169,
      "magnifying": 6170,
      "design": 6171,
      "gesundheit": 6172,
      "Dood": 6173,
      "Heat": 6174,
      "Lor": 6175,
      "Mill": 6176,
      "Span": 6177,
      "Washing": 6178,
      "bay": 6179,
      "bumble": 6180,
      "jor": 6181,
      "nug": 6182,
      "okey": 6183,
      "tuck": 6184,
      "var": 6185,
      "ishes": 6186,
      "sesame": 6187,
      "strand": 6188,
      "bey": 6189,
      "esy": 6190,
      "umm": 6191,
      "outta": 6192,
      "naked": 6193,
      "shears": 6194,
      "pling": 6195,
      "posit": 6196,
      "amount": 6197,
      "spank": 6198,
      "conservatory": 6199,
      "woosh": 6200,
      "builders": 6201,
      "panties": 6202,
      "hunt": 6203,
      "itched": 6204,
      "resting": 6205,
      "crispy": 6206,
      "flu": 6207,
      "Heads": 6208,
      "striped": 6209,
      "hooked": 6210,
      "pillows": 6211,
      "cocka": 6212,
      "shorty": 6213,
      "luckily": 6214,
      "dreaming": 6215,
      "disappointed": 6216,
      "instructions": 6217,
      "Nanna": 6218,
      "chugga": 6219,
      "ahphsss": 6220,
      "measuring": 6221,
      "tadah": 6222,
      "Crispies": 6223,
      "lonely": 6224,
      "Heaton": 6225,
      "Spanish": 6226,
      "Washington": 6227,
      "Don": 6228,
      "Fix": 6229,
      "NT": 6230,
      "Oll": 6231,
      "Sna": 6232,
      "Smudge": 6233,
      "TNT": 6234,
      "ither": 6235,
      "ji": 6236,
      "kit": 6237,
      "kas": 6238,
      "licked": 6239,
      "oper": 6240,
      "ured": 6241,
      "vid": 6242,
      "ware": 6243,
      "yikes": 6244,
      "iny": 6245,
      "heli": 6246,
      "secon": 6247,
      "stab": 6248,
      "iga": 6249,
      "ical": 6250,
      "arent": 6251,
      "adding": 6252,
      "bau": 6253,
      "nese": 6254,
      "master": 6255,
      "plough": 6256,
      "butt": 6257,
      "ounce": 6258,
      "cardin": 6259,
      "cardig": 6260,
      "ammy": 6261,
      "cheesy": 6262,
      "gap": 6263,
      "trave": 6264,
      "blon": 6265,
      "floppy": 6266,
      "chose": 6267,
      "span": 6268,
      "propell": 6269,
      "sawing": 6270,
      "forehead": 6271,
      "lightning": 6272,
      "gracious": 6273,
      "fried": 6274,
      "Rolf": 6275,
      "sliced": 6276,
      "asks": 6277,
      "root": 6278,
      "distur": 6279,
      "emptied": 6280,
      "silo": 6281,
      "loader": 6282,
      "jackets": 6283,
      "Ink": 6284,
      "lognese": 6285,
      "pirates": 6286,
      "crowded": 6287,
      "brrrm": 6288,
      "instrument": 6289,
      "spent": 6290,
      "fisher": 6291,
      "neenah": 6292,
      "damp": 6293,
      "transpor": 6294,
      "Sweetie": 6295,
      "burglar": 6296,
      "America": 6297,
      "Joseph": 6298,
      "combination": 6299,
      "fortunately": 6300,
      "Bodger": 6301,
      "Olliga": 6302,
      "seconds": 6303,
      "Jas": 6304,
      "Price": 6305,
      "bli": 6306,
      "dah": 6307,
      "duplo": 6308,
      "eag": 6309,
      "fs": 6310,
      "jum": 6311,
      "jet": 6312,
      "sion": 6313,
      "tangled": 6314,
      "wam": 6315,
      "island": 6316,
      "ors": 6317,
      "igade": 6318,
      "hoa": 6319,
      "gel": 6320,
      "comm": 6321,
      "bam": 6322,
      "rains": 6323,
      "boiler": 6324,
      "mole": 6325,
      "known": 6326,
      "manager": 6327,
      "icking": 6328,
      "playdough": 6329,
      "fizzy": 6330,
      "needn": 6331,
      "tyre": 6332,
      "maked": 6333,
      "psshh": 6334,
      "chemist": 6335,
      "tru": 6336,
      "brigade": 6337,
      "ders": 6338,
      "handles": 6339,
      "turkeys": 6340,
      "drika": 6341,
      "spreading": 6342,
      "washcloth": 6343,
      "fourth": 6344,
      "snacks": 6345,
      "smily": 6346,
      "conne": 6347,
      "sandra": 6348,
      "throws": 6349,
      "settle": 6350,
      "nursing": 6351,
      "bumping": 6352,
      "feeder": 6353,
      "Samara": 6354,
      "peeking": 6355,
      "rants": 6356,
      "nicked": 6357,
      "Hendrika": 6358,
      "rubby": 6359,
      "cabinet": 6360,
      "shortbread": 6361,
      "Lauren": 6362,
      "broombroom": 6363,
      "skinny": 6364,
      "squashing": 6365,
      "Tweenie": 6366,
      "doodledoo": 6367,
      "buckle": 6368,
      "waffles": 6369,
      "dandelion": 6370,
      "customers": 6371,
      "Shana": 6372,
      "Travis": 6373,
      "Susan": 6374,
      "Pushpa": 6375,
      "twisted": 6376,
      "Royal": 6377,
      "Cassandra": 6378,
      "cauli": 6379,
      "miserable": 6380,
      "occasion": 6381,
      "Ban": 6382,
      "Pic": 6383,
      "Zoo": 6384,
      "gue": 6385,
      "gross": 6386,
      "lon": 6387,
      "ske": 6388,
      "tus": 6389,
      "tins": 6390,
      "zo": 6391,
      "ising": 6392,
      "dokey": 6393,
      "level": 6394,
      "enium": 6395,
      "boil": 6396,
      "neither": 6397,
      "forth": 6398,
      "poster": 6399,
      "littler": 6400,
      "icky": 6401,
      "parrots": 6402,
      "tram": 6403,
      "trail": 6404,
      "wakes": 6405,
      "colorful": 6406,
      "lotta": 6407,
      "foil": 6408,
      "ruin": 6409,
      "neenor": 6410,
      "Robert": 6411,
      "zebras": 6412,
      "umbre": 6413,
      "favorites": 6414,
      "llama": 6415,
      "collap": 6416,
      "Georgy": 6417,
      "wrapper": 6418,
      "coats": 6419,
      "wishing": 6420,
      "squeal": 6421,
      "Bert": 6422,
      "Elmo": 6423,
      "rrr": 6424,
      "containers": 6425,
      "skunks": 6426,
      "Davis": 6427,
      "vitam": 6428,
      "Boston": 6429,
      "swiss": 6430,
      "scrap": 6431,
      "sirens": 6432,
      "baloney": 6433,
      "Timms": 6434,
      "photographs": 6435,
      "Indians": 6436,
      "Caroline": 6437,
      "tartan": 6438,
      "palm": 6439,
      "Canada": 6440,
      "Whiskas": 6441,
      "dalmat": 6442,
      "ffalo": 6443,
      "blossom": 6444,
      "Bum": 6445,
      "DW": 6446,
      "Flor": 6447,
      "Gail": 6448,
      "Hun": 6449,
      "Jingle": 6450,
      "Jerry": 6451,
      "Mis": 6452,
      "Mad": 6453,
      "Sim": 6454,
      "Wars": 6455,
      "ioned": 6456,
      "oval": 6457,
      "sledge": 6458,
      "reci": 6459,
      "sever": 6460,
      "sers": 6461,
      "dob": 6462,
      "stac": 6463,
      "lil": 6464,
      "liar": 6465,
      "unhappy": 6466,
      "plus": 6467,
      "epis": 6468,
      "female": 6469,
      "wate": 6470,
      "sideways": 6471,
      "tening": 6472,
      "suits": 6473,
      "handsome": 6474,
      "oopsie": 6475,
      "rooms": 6476,
      "pickup": 6477,
      "blackbird": 6478,
      "barret": 6479,
      "markers": 6480,
      "walkie": 6481,
      "rainy": 6482,
      "knocks": 6483,
      "Name": 6484,
      "pire": 6485,
      "visible": 6486,
      "fruits": 6487,
      "Potter": 6488,
      "sweetcorn": 6489,
      "collection": 6490,
      "tubs": 6491,
      "lint": 6492,
      "sneezed": 6493,
      "Baa": 6494,
      "axe": 6495,
      "branches": 6496,
      "patterns": 6497,
      "robbers": 6498,
      "dragons": 6499,
      "Happy": 6500,
      "Penny": 6501,
      "credit": 6502,
      "galloping": 6503,
      "Susie": 6504,
      "Earth": 6505,
      "lilys": 6506,
      "bawk": 6507,
      "transmitter": 6508,
      "cardigan": 6509,
      "hoagie": 6510,
      "umbrellas": 6511,
      "vitamins": 6512,
      "several": 6513,
      "Cale": 6514,
      "Dentist": 6515,
      "Ela": 6516,
      "Erin": 6517,
      "Mich": 6518,
      "Mex": 6519,
      "Row": 6520,
      "Sha": 6521,
      "Spar": 6522,
      "Scarry": 6523,
      "Todd": 6524,
      "Vir": 6525,
      "dung": 6526,
      "dutch": 6527,
      "fash": 6528,
      "hus": 6529,
      "jah": 6530,
      "litter": 6531,
      "narrow": 6532,
      "rit": 6533,
      "warn": 6534,
      "oul": 6535,
      "strain": 6536,
      "icicles": 6537,
      "esh": 6538,
      "navy": 6539,
      "bock": 6540,
      "unfortunately": 6541,
      "peeled": 6542,
      "saving": 6543,
      "whom": 6544,
      "shield": 6545,
      "tsy": 6546,
      "backyard": 6547,
      "hiss": 6548,
      "tricked": 6549,
      "peri": 6550,
      "sity": 6551,
      "foots": 6552,
      "chopped": 6553,
      "business": 6554,
      "Pop": 6555,
      "breath": 6556,
      "worktop": 6557,
      "tles": 6558,
      "botty": 6559,
      "darker": 6560,
      "connect": 6561,
      "gran": 6562,
      "married": 6563,
      "Margie": 6564,
      "hike": 6565,
      "Road": 6566,
      "clips": 6567,
      "shuting": 6568,
      "disc": 6569,
      "itchy": 6570,
      "Jessie": 6571,
      "shooting": 6572,
      "soapy": 6573,
      "hugs": 6574,
      "lined": 6575,
      "drums": 6576,
      "sentence": 6577,
      "Mcdonald": 6578,
      "dishwasher": 6579,
      "stacking": 6580,
      "buzzing": 6581,
      "lanterns": 6582,
      "Cait": 6583,
      "Frost": 6584,
      "register": 6585,
      "learnt": 6586,
      "Platford": 6587,
      "quavers": 6588,
      "Batters": 6589,
      "ginia": 6590,
      "nanny": 6591,
      "Pushba": 6592,
      "expecting": 6593,
      "tutu": 6594,
      "Clara": 6595,
      "scribbling": 6596,
      "cockadoodledoo": 6597,
      "Fixit": 6598,
      "transporter": 6599,
      "Michigan": 6600,
      "Virginia": 6601,
      "Bed": 6602,
      "Count": 6603,
      "Sir": 6604,
      "aa": 6605,
      "bla": 6606,
      "bunk": 6607,
      "bitter": 6608,
      "cig": 6609,
      "floo": 6610,
      "gic": 6611,
      "grubby": 6612,
      "hush": 6613,
      "jou": 6614,
      "kle": 6615,
      "tanger": 6616,
      "vate": 6617,
      "wy": 6618,
      "tho": 6619,
      "invisible": 6620,
      "isance": 6621,
      "whad": 6622,
      "ican": 6623,
      "ena": 6624,
      "edy": 6625,
      "usty": 6626,
      "shire": 6627,
      "imi": 6628,
      "layer": 6629,
      "Ninny": 6630,
      "quer": 6631,
      "precious": 6632,
      "training": 6633,
      "flown": 6634,
      "choice": 6635,
      "ugly": 6636,
      "spy": 6637,
      "sport": 6638,
      "nights": 6639,
      "gray": 6640,
      "engineer": 6641,
      "sunflower": 6642,
      "purr": 6643,
      "direc": 6644,
      "beebah": 6645,
      "skate": 6646,
      "assist": 6647,
      "rider": 6648,
      "avo": 6649,
      "curl": 6650,
      "flan": 6651,
      "flute": 6652,
      "winding": 6653,
      "Telly": 6654,
      "scruffy": 6655,
      "magpie": 6656,
      "dumping": 6657,
      "gener": 6658,
      "package": 6659,
      "melting": 6660,
      "ratty": 6661,
      "spinach": 6662,
      "clearing": 6663,
      "cranberries": 6664,
      "sews": 6665,
      "daffodil": 6666,
      "nuisance": 6667,
      "nipple": 6668,
      "cuddly": 6669,
      "hydr": 6670,
      "sneakers": 6671,
      "arrange": 6672,
      "Helen": 6673,
      "Toot": 6674,
      "Francisco": 6675,
      "poisonous": 6676,
      "Martin": 6677,
      "Quavers": 6678,
      "fabric": 6679,
      "strands": 6680,
      "blonde": 6681,
      "episode": 6682,
      "barrette": 6683,
      "Ash": 6684,
      "Adam": 6685,
      "Bil": 6686,
      "Eva": 6687,
      "Vik": 6688,
      "Wow": 6689,
      "ait": 6690,
      "ahe": 6691,
      "aphone": 6692,
      "gam": 6693,
      "gween": 6694,
      "jay": 6695,
      "mps": 6696,
      "pity": 6697,
      "rich": 6698,
      "vous": 6699,
      "thump": 6700,
      "invit": 6701,
      "meg": 6702,
      "medi": 6703,
      "lers": 6704,
      "become": 6705,
      "enter": 6706,
      "adu": 6707,
      "ading": 6708,
      "ades": 6709,
      "wike": 6710,
      "uppy": 6711,
      "chunk": 6712,
      "lookit": 6713,
      "term": 6714,
      "cey": 6715,
      "shri": 6716,
      "ickle": 6717,
      "maker": 6718,
      "offer": 6719,
      "psy": 6720,
      "cheque": 6721,
      "cheating": 6722,
      "buquer": 6723,
      "blah": 6724,
      "blank": 6725,
      "froggy": 6726,
      "wag": 6727,
      "floss": 6728,
      "handcu": 6729,
      "irsten": 6730,
      "ilers": 6731,
      "doorbell": 6732,
      "walnuts": 6733,
      "pige": 6734,
      "talkie": 6735,
      "talkaphone": 6736,
      "mation": 6737,
      "drown": 6738,
      "squished": 6739,
      "teething": 6740,
      "Patty": 6741,
      "ations": 6742,
      "imagin": 6743,
      "owner": 6744,
      "snug": 6745,
      "crispies": 6746,
      "stores": 6747,
      "curious": 6748,
      "discovered": 6749,
      "gonga": 6750,
      "desc": 6751,
      "stronger": 6752,
      "passing": 6753,
      "safety": 6754,
      "smartie": 6755,
      "velcro": 6756,
      "spotted": 6757,
      "Nellie": 6758,
      "pita": 6759,
      "Albuquer": 6760,
      "marmite": 6761,
      "private": 6762,
      "dragonfly": 6763,
      "wahwah": 6764,
      "Matt": 6765,
      "vities": 6766,
      "bothering": 6767,
      "Woody": 6768,
      "Puddleduck": 6769,
      "copying": 6770,
      "goofy": 6771,
      "practicing": 6772,
      "oyster": 6773,
      "activity": 6774,
      "Diego": 6775,
      "statue": 6776,
      "wampa": 6777,
      "cauliflower": 6778,
      "tusks": 6779,
      "Baaee": 6780,
      "Elaine": 6781,
      "fashioned": 6782,
      "medium": 6783,
      "Albuquerque": 6784,
      "Dr": 6785,
      "Dry": 6786,
      "Del": 6787,
      "Grace": 6788,
      "Jed": 6789,
      "Kirsten": 6790,
      "Munch": 6791,
      "Rover": 6792,
      "Rever": 6793,
      "Scar": 6794,
      "Ver": 6795,
      "Wo": 6796,
      "aquar": 6797,
      "bound": 6798,
      "cson": 6799,
      "hone": 6800,
      "kleenex": 6801,
      "lala": 6802,
      "paddy": 6803,
      "pway": 6804,
      "yley": 6805,
      "zers": 6806,
      "remy": 6807,
      "issa": 6808,
      "gos": 6809,
      "ordered": 6810,
      "oop": 6811,
      "iche": 6812,
      "gems": 6813,
      "coaster": 6814,
      "chan": 6815,
      "sheets": 6816,
      "nez": 6817,
      "seemed": 6818,
      "pety": 6819,
      "terrif": 6820,
      "eater": 6821,
      "eated": 6822,
      "indians": 6823,
      "shades": 6824,
      "bler": 6825,
      "willy": 6826,
      "hairs": 6827,
      "wack": 6828,
      "acorns": 6829,
      "greens": 6830,
      "compart": 6831,
      "stage": 6832,
      "devil": 6833,
      "leak": 6834,
      "underground": 6835,
      "hotdogs": 6836,
      "gras": 6837,
      "woolly": 6838,
      "storytime": 6839,
      "polka": 6840,
      "Mail": 6841,
      "rained": 6842,
      "specially": 6843,
      "seventh": 6844,
      "Rock": 6845,
      "spoonful": 6846,
      "cooled": 6847,
      "Bee": 6848,
      "tickled": 6849,
      "surface": 6850,
      "emptying": 6851,
      "sending": 6852,
      "seatbelt": 6853,
      "bands": 6854,
      "necklaces": 6855,
      "Jeremy": 6856,
      "lately": 6857,
      "strings": 6858,
      "bending": 6859,
      "safely": 6860,
      "Tucson": 6861,
      "combing": 6862,
      "delicate": 6863,
      "folded": 6864,
      "exercising": 6865,
      "skipping": 6866,
      "Lynn": 6867,
      "decker": 6868,
      "warmer": 6869,
      "univer": 6870,
      "brumbrum": 6871,
      "North": 6872,
      "Betta": 6873,
      "sparkly": 6874,
      "dickory": 6875,
      "Early": 6876,
      "invited": 6877,
      "donuts": 6878,
      "budleyley": 6879,
      "particularly": 6880,
      "Allen": 6881,
      "giggling": 6882,
      "trumpet": 6883,
      "Malte": 6884,
      "kaboom": 6885,
      "jumpers": 6886,
      "occasionally": 6887,
      "Reverand": 6888,
      "aquarium": 6889,
      "honest": 6890,
      "Bill": 6891,
      "Cho": 6892,
      "Funny": 6893,
      "French": 6894,
      "Glo": 6895,
      "Nut": 6896,
      "Poo": 6897,
      "Scan": 6898,
      "Sindy": 6899,
      "boh": 6900,
      "dic": 6901,
      "dairy": 6902,
      "ffee": 6903,
      "iers": 6904,
      "juni": 6905,
      "lish": 6906,
      "mare": 6907,
      "noun": 6908,
      "pwan": 6909,
      "poops": 6910,
      "range": 6911,
      "spotty": 6912,
      "treading": 6913,
      "yah": 6914,
      "repe": 6915,
      "anchor": 6916,
      "height": 6917,
      "lley": 6918,
      "whi": 6919,
      "stin": 6920,
      "stung": 6921,
      "arian": 6922,
      "ooked": 6923,
      "ida": 6924,
      "irk": 6925,
      "rolie": 6926,
      "nem": 6927,
      "urdy": 6928,
      "poppers": 6929,
      "pered": 6930,
      "pled": 6931,
      "cel": 6932,
      "inese": 6933,
      "parach": 6934,
      "trace": 6935,
      "phooey": 6936,
      "crum": 6937,
      "crooked": 6938,
      "reached": 6939,
      "foal": 6940,
      "rison": 6941,
      "spat": 6942,
      "pub": 6943,
      "cube": 6944,
      "sci": 6945,
      "dial": 6946,
      "Mumma": 6947,
      "jewel": 6948,
      "mostly": 6949,
      "eyeballs": 6950,
      "burst": 6951,
      "hamper": 6952,
      "brake": 6953,
      "Jelly": 6954,
      "bicycles": 6955,
      "bounced": 6956,
      "hills": 6957,
      "brightly": 6958,
      "tights": 6959,
      "Well": 6960,
      "cracking": 6961,
      "squashy": 6962,
      "fleet": 6963,
      "trodden": 6964,
      "Greg": 6965,
      "photos": 6966,
      "smiled": 6967,
      "Grammy": 6968,
      "grabber": 6969,
      "Grizz": 6970,
      "flashlight": 6971,
      "labels": 6972,
      "damn": 6973,
      "Thumb": 6974,
      "buffer": 6975,
      "apparent": 6976,
      "prickly": 6977,
      "burglars": 6978,
      "invite": 6979,
      "yleys": 6980,
      "budleyleys": 6981,
      "vehicle": 6982,
      "answered": 6983,
      "Duke": 6984,
      "reflection": 6985,
      "cellar": 6986,
      "Doodles": 6987,
      "eagle": 6988,
      "Mexico": 6989,
      "Caitlin": 6990,
      "Battersby": 6991,
      "cigaret": 6992,
      "aitchoo": 6993,
      "apparently": 6994,
      "Aggie": 6995,
      "Fl": 6996,
      "Flint": 6997,
      "Iso": 6998,
      "Lar": 6999,
      "Lass": 7000,
      "Pie": 7001,
      "Sil": 7002,
      "Squ": 7003,
      "Yan": 7004,
      "ain": 7005,
      "aky": 7006,
      "byes": 7007,
      "blast": 7008,
      "gla": 7009,
      "ired": 7010,
      "slight": 7011,
      "sses": 7012,
      "treme": 7013,
      "tshirt": 7014,
      "von": 7015,
      "inny": 7016,
      "anten": 7017,
      "toffee": 7018,
      "weig": 7019,
      "dove": 7020,
      "arar": 7021,
      "ickety": 7022,
      "alley": 7023,
      "adver": 7024,
      "chi": 7025,
      "cape": 7026,
      "nephew": 7027,
      "washes": 7028,
      "undone": 7029,
      "unzip": 7030,
      "pokey": 7031,
      "peed": 7032,
      "rily": 7033,
      "impressed": 7034,
      "pale": 7035,
      "abc": 7036,
      "backs": 7037,
      "backhoe": 7038,
      "laid": 7039,
      "shaky": 7040,
      "buffalo": 7041,
      "llowed": 7042,
      "prep": 7043,
      "colt": 7044,
      "clocks": 7045,
      "deary": 7046,
      "foods": 7047,
      "ulp": 7048,
      "affe": 7049,
      "stain": 7050,
      "rule": 7051,
      "crete": 7052,
      "creep": 7053,
      "pooed": 7054,
      "waiter": 7055,
      "players": 7056,
      "grit": 7057,
      "grater": 7058,
      "lunchbox": 7059,
      "smelt": 7060,
      "skates": 7061,
      "nurses": 7062,
      "slices": 7063,
      "Beaut": 7064,
      "ject": 7065,
      "tripod": 7066,
      "messed": 7067,
      "burgh": 7068,
      "Andrew": 7069,
      "jamin": 7070,
      "dist": 7071,
      "Benjamin": 7072,
      "freshe": 7073,
      "Playdoh": 7074,
      "loudly": 7075,
      "sisters": 7076,
      "tighten": 7077,
      "smoked": 7078,
      "Derek": 7079,
      "orangut": 7080,
      "Rudolph": 7081,
      "reminded": 7082,
      "lifts": 7083,
      "Pussy": 7084,
      "switched": 7085,
      "toottoot": 7086,
      "compared": 7087,
      "protein": 7088,
      "spraying": 7089,
      "Penn": 7090,
      "concentrate": 7091,
      "target": 7092,
      "tumbling": 7093,
      "speaking": 7094,
      "England": 7095,
      "blender": 7096,
      "bleeding": 7097,
      "trooper": 7098,
      "Snake": 7099,
      "guest": 7100,
      "Florida": 7101,
      "Misses": 7102,
      "stacked": 7103,
      "hydrant": 7104,
      "Dryden": 7105,
      "terrific": 7106,
      "Wellfleet": 7107,
      "Cad": 7108,
      "Cod": 7109,
      "City": 7110,
      "Dairy": 7111,
      "Duplo": 7112,
      "Gumpy": 7113,
      "Gammy": 7114,
      "Kleenex": 7115,
      "Land": 7116,
      "Lina": 7117,
      "Lady": 7118,
      "Mu": 7119,
      "Pier": 7120,
      "Rul": 7121,
      "Sad": 7122,
      "Sch": 7123,
      "Shor": 7124,
      "School": 7125,
      "South": 7126,
      "Ty": 7127,
      "ajudge": 7128,
      "ehaw": 7129,
      "grain": 7130,
      "lvan": 7131,
      "mul": 7132,
      "nister": 7133,
      "pli": 7134,
      "sling": 7135,
      "slack": 7136,
      "sigh": 7137,
      "snoopy": 7138,
      "yip": 7139,
      "inclu": 7140,
      "ref": 7141,
      "veter": 7142,
      "igno": 7143,
      "aller": 7144,
      "geant": 7145,
      "lder": 7146,
      "core": 7147,
      "edger": 7148,
      "someplace": 7149,
      "caboo": 7150,
      "uster": 7151,
      "unched": 7152,
      "maid": 7153,
      "popp": 7154,
      "fellow": 7155,
      "needles": 7156,
      "brid": 7157,
      "sideboard": 7158,
      "tubbies": 7159,
      "sss": 7160,
      "ardvar": 7161,
      "phy": 7162,
      "commer": 7163,
      "horr": 7164,
      "foam": 7165,
      "dem": 7166,
      "holder": 7167,
      "gues": 7168,
      "exam": 7169,
      "pushes": 7170,
      "steep": 7171,
      "bathtime": 7172,
      "flys": 7173,
      "airpwan": 7174,
      "suntan": 7175,
      "tress": 7176,
      "beeping": 7177,
      "teddybears": 7178,
      "beeu": 7179,
      "badly": 7180,
      "Betsy": 7181,
      "bumpity": 7182,
      "grandmas": 7183,
      "buried": 7184,
      "chased": 7185,
      "whisk": 7186,
      "sensi": 7187,
      "scrubb": 7188,
      "onaut": 7189,
      "pointy": 7190,
      "midwife": 7191,
      "twirl": 7192,
      "flask": 7193,
      "seagu": 7194,
      "porcup": 7195,
      "Jackie": 7196,
      "videos": 7197,
      "Freddie": 7198,
      "grampa": 7199,
      "Pinga": 7200,
      "Chep": 7201,
      "cloudy": 7202,
      "changes": 7203,
      "vacuuming": 7204,
      "Franny": 7205,
      "Goldbug": 7206,
      "Mothercare": 7207,
      "hhhh": 7208,
      "soldiers": 7209,
      "squeaking": 7210,
      "slides": 7211,
      "quacks": 7212,
      "diddley": 7213,
      "wandering": 7214,
      "cuddling": 7215,
      "adventure": 7216,
      "barriers": 7217,
      "ssop": 7218,
      "Poppleton": 7219,
      "annoyed": 7220,
      "insect": 7221,
      "concert": 7222,
      "baubles": 7223,
      "propeller": 7224,
      "dungare": 7225,
      "Glossop": 7226,
      "juniper": 7227,
      "Yankee": 7228,
      "Cadbury": 7229,
      "Short": 7230,
      "scrubbing": 7231,
      "Ad": 7232,
      "Ana": 7233,
      "Brus": 7234,
      "Cam": 7235,
      "Cesca": 7236,
      "Dun": 7237,
      "East": 7238,
      "Gary": 7239,
      "Hon": 7240,
      "Inez": 7241,
      "Jac": 7242,
      "Jap": 7243,
      "Loo": 7244,
      "Lia": 7245,
      "Pick": 7246,
      "Prin": 7247,
      "Ti": 7248,
      "Ter": 7249,
      "Zor": 7250,
      "ali": 7251,
      "aver": 7252,
      "aardvar": 7253,
      "cti": 7254,
      "cue": 7255,
      "eah": 7256,
      "fto": 7257,
      "glo": 7258,
      "pher": 7259,
      "ronaut": 7260,
      "scan": 7261,
      "sus": 7262,
      "tide": 7263,
      "twer": 7264,
      "onged": 7265,
      "heared": 7266,
      "meter": 7267,
      "dom": 7268,
      "arrest": 7269,
      "soc": 7270,
      "admit": 7271,
      "ede": 7272,
      "wies": 7273,
      "role": 7274,
      "altogether": 7275,
      "razzle": 7276,
      "cages": 7277,
      "cact": 7278,
      "mois": 7279,
      "tamb": 7280,
      "unwrap": 7281,
      "ply": 7282,
      "popping": 7283,
      "tex": 7284,
      "sam": 7285,
      "tipper": 7286,
      "ideas": 7287,
      "cheap": 7288,
      "shared": 7289,
      "ourine": 7290,
      "bloom": 7291,
      "suds": 7292,
      "ulah": 7293,
      "dribble": 7294,
      "spitting": 7295,
      "breathing": 7296,
      "milkshake": 7297,
      "leaking": 7298,
      "mornings": 7299,
      "snapped": 7300,
      "mousie": 7301,
      "hotter": 7302,
      "hearts": 7303,
      "merrily": 7304,
      "footprints": 7305,
      "astronaut": 7306,
      "storybook": 7307,
      "crossed": 7308,
      "gravel": 7309,
      "messpot": 7310,
      "belonged": 7311,
      "snowy": 7312,
      "partys": 7313,
      "yolk": 7314,
      "curved": 7315,
      "condition": 7316,
      "jellys": 7317,
      "pooped": 7318,
      "saurus": 7319,
      "scaring": 7320,
      "serving": 7321,
      "streets": 7322,
      "pinching": 7323,
      "craft": 7324,
      "rotten": 7325,
      "Carla": 7326,
      "freezing": 7327,
      "chickadee": 7328,
      "agne": 7329,
      "sylvan": 7330,
      "rainbows": 7331,
      "seasons": 7332,
      "Matty": 7333,
      "tabard": 7334,
      "Parcel": 7335,
      "smacked": 7336,
      "ugging": 7337,
      "Dougal": 7338,
      "Cape": 7339,
      "Kevin": 7340,
      "swishswish": 7341,
      "lollipops": 7342,
      "plugged": 7343,
      "squishy": 7344,
      "pompom": 7345,
      "eighteenth": 7346,
      "snuggly": 7347,
      "Carol": 7348,
      "Tractor": 7349,
      "hickory": 7350,
      "Goofy": 7351,
      "volcano": 7352,
      "heavens": 7353,
      "crushed": 7354,
      "Story": 7355,
      "submar": 7356,
      "vomit": 7357,
      "longest": 7358,
      "Bumpa": 7359,
      "strainer": 7360,
      "Maltesers": 7361,
      "diction": 7362,
      "parachute": 7363,
      "Beauty": 7364,
      "distance": 7365,
      "Pennsylvan": 7366,
      "Sadie": 7367,
      "veterin": 7368,
      "sensible": 7369,
      "Brussels": 7370,
      "Princess": 7371,
      "twerp": 7372,
      "tambourine": 7373,
      "Pennsylvania": 7374,
      "Alis": 7375,
      "Brand": 7376,
      "Bart": 7377,
      "Boulder": 7378,
      "Crow": 7379,
      "Fla": 7380,
      "Gu": 7381,
      "Is": 7382,
      "Lin": 7383,
      "Pan": 7384,
      "Pal": 7385,
      "Sher": 7386,
      "Snu": 7387,
      "Ta": 7388,
      "Tiny": 7389,
      "Wa": 7390,
      "adow": 7391,
      "clack": 7392,
      "dab": 7393,
      "duper": 7394,
      "fal": 7395,
      "glor": 7396,
      "hye": 7397,
      "ivy": 7398,
      "kar": 7399,
      "lang": 7400,
      "lks": 7401,
      "pum": 7402,
      "plot": 7403,
      "slam": 7404,
      "incy": 7405,
      "indoors": 7406,
      "onder": 7407,
      "heating": 7408,
      "lebr": 7409,
      "argh": 7410,
      "solid": 7411,
      "ically": 7412,
      "yesh": 7413,
      "ira": 7414,
      "wipers": 7415,
      "wizard": 7416,
      "raise": 7417,
      "force": 7418,
      "uhhum": 7419,
      "taped": 7420,
      "poles": 7421,
      "poem": 7422,
      "lyn": 7423,
      "celebr": 7424,
      "checks": 7425,
      "fastest": 7426,
      "phon": 7427,
      "angels": 7428,
      "appeared": 7429,
      "byebyes": 7430,
      "followed": 7431,
      "binbag": 7432,
      "rules": 7433,
      "steak": 7434,
      "birthdays": 7435,
      "hearing": 7436,
      "sandy": 7437,
      "anese": 7438,
      "bows": 7439,
      "jumpin": 7440,
      "frust": 7441,
      "barrels": 7442,
      "baths": 7443,
      "purring": 7444,
      "dith": 7445,
      "Roger": 7446,
      "banjo": 7447,
      "snowball": 7448,
      "slicing": 7449,
      "Bean": 7450,
      "visor": 7451,
      "wallet": 7452,
      "growl": 7453,
      "drawed": 7454,
      "nutella": 7455,
      "cheddar": 7456,
      "sized": 7457,
      "bulbs": 7458,
      "Mondays": 7459,
      "cupboards": 7460,
      "aerial": 7461,
      "squirted": 7462,
      "twir": 7463,
      "incey": 7464,
      "flashes": 7465,
      "Sleeping": 7466,
      "foxes": 7467,
      "melts": 7468,
      "delivers": 7469,
      "hippos": 7470,
      "Kristen": 7471,
      "human": 7472,
      "shorter": 7473,
      "agree": 7474,
      "Elbert": 7475,
      "flee": 7476,
      "leafs": 7477,
      "Godz": 7478,
      "Soopers": 7479,
      "Goldy": 7480,
      "stroking": 7481,
      "pshire": 7482,
      "Dayja": 7483,
      "Boots": 7484,
      "Amara": 7485,
      "swans": 7486,
      "christening": 7487,
      "sweatshirt": 7488,
      "cadilly": 7489,
      "sports": 7490,
      "Helena": 7491,
      "annoying": 7492,
      "Minne": 7493,
      "amazing": 7494,
      "sprinkles": 7495,
      "origami": 7496,
      "Hampshire": 7497,
      "Twinkle": 7498,
      "stencil": 7499,
      "nuggets": 7500,
      "position": 7501,
      "Piccadilly": 7502,
      "directions": 7503,
      "handcuffs": 7504,
      "Pierre": 7505,
      "caboose": 7506,
      "airpwane": 7507,
      "porcupine": 7508,
      "Shortzy": 7509,
      "Pickles": 7510,
      "Snuggy": 7511,
      "langu": 7512,
      "Ant": 7513,
      "Bi": 7514,
      "Beat": 7515,
      "Cathy": 7516,
      "Farm": 7517,
      "Faye": 7518,
      "Gwampa": 7519,
      "Kiki": 7520,
      "Oz": 7521,
      "Prest": 7522,
      "Rex": 7523,
      "Tay": 7524,
      "Tele": 7525,
      "Tippy": 7526,
      "Wal": 7527,
      "Wigg": 7528,
      "Wheels": 7529,
      "aboard": 7530,
      "bitty": 7531,
      "crea": 7532,
      "elast": 7533,
      "elder": 7534,
      "gent": 7535,
      "ggies": 7536,
      "ido": 7537,
      "mur": 7538,
      "tes": 7539,
      "uf": 7540,
      "uzz": 7541,
      "inje": 7542,
      "incredible": 7543,
      "reo": 7544,
      "ress": 7545,
      "whil": 7546,
      "golly": 7547,
      "beam": 7548,
      "aspar": 7549,
      "addle": 7550,
      "ooky": 7551,
      "edges": 7552,
      "ironed": 7553,
      "bol": 7554,
      "thermo": 7555,
      "tease": 7556,
      "Thomps": 7557,
      "sawed": 7558,
      "comed": 7559,
      "daytime": 7560,
      "ounder": 7561,
      "backing": 7562,
      "laven": 7563,
      "para": 7564,
      "trailers": 7565,
      "buckets": 7566,
      "froggie": 7567,
      "happier": 7568,
      "acid": 7569,
      "handy": 7570,
      "foss": 7571,
      "foggy": 7572,
      "baggage": 7573,
      "rushed": 7574,
      "careless": 7575,
      "milkman": 7576,
      "harm": 7577,
      "torn": 7578,
      "concrete": 7579,
      "actual": 7580,
      "Maisy": 7581,
      "garble": 7582,
      "beebas": 7583,
      "swims": 7584,
      "bannister": 7585,
      "trim": 7586,
      "pyram": 7587,
      "glitter": 7588,
      "mickey": 7589,
      "pooping": 7590,
      "bandana": 7591,
      "sizzle": 7592,
      "Moe": 7593,
      "Teletubbie": 7594,
      "gents": 7595,
      "spelling": 7596,
      "pedal": 7597,
      "Toy": 7598,
      "ubby": 7599,
      "Debbie": 7600,
      "sentences": 7601,
      "dumpling": 7602,
      "pineapples": 7603,
      "Freddy": 7604,
      "millenium": 7605,
      "collects": 7606,
      "seashe": 7607,
      "lifeguard": 7608,
      "hiccup": 7609,
      "Bolognese": 7610,
      "Parrot": 7611,
      "Baba": 7612,
      "rattles": 7613,
      "chart": 7614,
      "goody": 7615,
      "Darrot": 7616,
      "seriously": 7617,
      "almonds": 7618,
      "crusty": 7619,
      "nonsense": 7620,
      "dresses": 7621,
      "insects": 7622,
      "Cheeky": 7623,
      "soaking": 7624,
      "streamers": 7625,
      "traveling": 7626,
      "skeleton": 7627,
      "dalmatian": 7628,
      "Hungar": 7629,
      "Clarabel": 7630,
      "grassho": 7631,
      "Scania": 7632,
      "orangutan": 7633,
      "dungarees": 7634,
      "cactus": 7635,
      "Alison": 7636,
      "Brandon": 7637,
      "language": 7638,
      "Preston": 7639,
      "lavender": 7640,
      "pyramid": 7641,
      "Dra": 7642,
      "Hook": 7643,
      "Im": 7644,
      "Kyle": 7645,
      "Pr": 7646,
      "Pass": 7647,
      "Phoe": 7648,
      "Padding": 7649,
      "Ser": 7650,
      "eys": 7651,
      "eels": 7652,
      "olive": 7653,
      "uro": 7654,
      "uder": 7655,
      "ully": 7656,
      "vou": 7657,
      "wound": 7658,
      "infe": 7659,
      "inju": 7660,
      "rey": 7661,
      "anth": 7662,
      "anne": 7663,
      "anie": 7664,
      "ats": 7665,
      "iter": 7666,
      "igloo": 7667,
      "aspir": 7668,
      "adder": 7669,
      "cocoon": 7670,
      "chuff": 7671,
      "babo": 7672,
      "balan": 7673,
      "alal": 7674,
      "caution": 7675,
      "whereas": 7676,
      "tac": 7677,
      "maca": 7678,
      "itts": 7679,
      "urgers": 7680,
      "posh": 7681,
      "shred": 7682,
      "shiver": 7683,
      "mantel": 7684,
      "imple": 7685,
      "travel": 7686,
      "colander": 7687,
      "gile": 7688,
      "suc": 7689,
      "drill": 7690,
      "nightmare": 7691,
      "hatching": 7692,
      "cutters": 7693,
      "lfth": 7694,
      "applesauce": 7695,
      "steer": 7696,
      "steward": 7697,
      "cooks": 7698,
      "fishies": 7699,
      "ffle": 7700,
      "elevator": 7701,
      "hotdog": 7702,
      "dinners": 7703,
      "mattress": 7704,
      "bowling": 7705,
      "runned": 7706,
      "pretended": 7707,
      "painter": 7708,
      "sunglass": 7709,
      "dazzle": 7710,
      "hiya": 7711,
      "nervous": 7712,
      "listens": 7713,
      "emima": 7714,
      "skating": 7715,
      "cooler": 7716,
      "fingernail": 7717,
      "ticklish": 7718,
      "slimy": 7719,
      "curve": 7720,
      "mischief": 7721,
      "staring": 7722,
      "mothers": 7723,
      "twelfth": 7724,
      "potatos": 7725,
      "nicke": 7726,
      "midnight": 7727,
      "flied": 7728,
      "squirting": 7729,
      "fairies": 7730,
      "Color": 7731,
      "Julie": 7732,
      "pedals": 7733,
      "flats": 7734,
      "Carry": 7735,
      "toolbox": 7736,
      "kiddo": 7737,
      "planting": 7738,
      "rated": 7739,
      "Maryse": 7740,
      "accidents": 7741,
      "leader": 7742,
      "clearly": 7743,
      "trunks": 7744,
      "bashing": 7745,
      "squeezing": 7746,
      "Jennif": 7747,
      "larger": 7748,
      "leaflet": 7749,
      "peacock": 7750,
      "Babar": 7751,
      "kneel": 7752,
      "grip": 7753,
      "figured": 7754,
      "smacking": 7755,
      "hamburgers": 7756,
      "plop": 7757,
      "fragile": 7758,
      "hallway": 7759,
      "sweaty": 7760,
      "dicky": 7761,
      "toads": 7762,
      "whinge": 7763,
      "cartoon": 7764,
      "pansys": 7765,
      "webbed": 7766,
      "bossy": 7767,
      "depends": 7768,
      "vehicles": 7769,
      "Trouble": 7770,
      "energy": 7771,
      "cardinal": 7772,
      "Ashworth": 7773,
      "chunks": 7774,
      "Flounder": 7775,
      "Flintstones": 7776,
      "Larry": 7777,
      "prepare": 7778,
      "Muffet": 7779,
      "slacks": 7780,
      "commercial": 7781,
      "Duncan": 7782,
      "Japanese": 7783,
      "alien": 7784,
      "soccer": 7785,
      "texture": 7786,
      "submarine": 7787,
      "dictionary": 7788,
      "Phoebe": 7789,
      "Paddington": 7790,
      "Jennifer": 7791,
      "BBC": 7792,
      "Dee": 7793,
      "Eve": 7794,
      "Foo": 7795,
      "Gi": 7796,
      "Ging": 7797,
      "Gus": 7798,
      "Good": 7799,
      "Lion": 7800,
      "Mil": 7801,
      "Non": 7802,
      "Rat": 7803,
      "Rus": 7804,
      "Sk": 7805,
      "Sid": 7806,
      "Sque": 7807,
      "Tall": 7808,
      "]'": 7809,
      "alike": 7810,
      "buh": 7811,
      "dwi": 7812,
      "dice": 7813,
      "dent": 7814,
      "ef": 7815,
      "fas": 7816,
      "fart": 7817,
      "fiddle": 7818,
      "gulp": 7819,
      "hut": 7820,
      "huff": 7821,
      "kicks": 7822,
      "obl": 7823,
      "pj": 7824,
      "plow": 7825,
      "proof": 7826,
      "scold": 7827,
      "slap": 7828,
      "sippy": 7829,
      "tsa": 7830,
      "uation": 7831,
      "thicker": 7832,
      "remo": 7833,
      "return": 7834,
      "sec": 7835,
      "mem": 7836,
      "mere": 7837,
      "member": 7838,
      "metery": 7839,
      "yelling": 7840,
      "halves": 7841,
      "whatsits": 7842,
      "myard": 7843,
      "canal": 7844,
      "code": 7845,
      "somer": 7846,
      "cado": 7847,
      "bop": 7848,
      "fort": 7849,
      "undressed": 7850,
      "maple": 7851,
      "cemetery": 7852,
      "cargo": 7853,
      "indic": 7854,
      "Mummys": 7855,
      "background": 7856,
      "trade": 7857,
      "blues": 7858,
      "worker": 7859,
      "situation": 7860,
      "catched": 7861,
      "gily": 7862,
      "helper": 7863,
      "ulars": 7864,
      "complain": 7865,
      "choking": 7866,
      "dries": 7867,
      "Poy": 7868,
      "splo": 7869,
      "spice": 7870,
      "spooky": 7871,
      "guide": 7872,
      "muddle": 7873,
      "breaked": 7874,
      "examin": 7875,
      "stew": 7876,
      "leather": 7877,
      "pickled": 7878,
      "grouch": 7879,
      "blackberries": 7880,
      "postcards": 7881,
      "bathrobe": 7882,
      "Major": 7883,
      "farmyard": 7884,
      "quet": 7885,
      "woodpe": 7886,
      "mouses": 7887,
      "eyelas": 7888,
      "basin": 7889,
      "beauty": 7890,
      "beautifully": 7891,
      "sooner": 7892,
      "curls": 7893,
      "currants": 7894,
      "strapped": 7895,
      "scares": 7896,
      "helicopters": 7897,
      "dances": 7898,
      "cloths": 7899,
      "surprises": 7900,
      "softball": 7901,
      "elia": 7902,
      "satur": 7903,
      "sley": 7904,
      "Sonya": 7905,
      "planet": 7906,
      "Tuesdays": 7907,
      "chicky": 7908,
      "pointment": 7909,
      "McGre": 7910,
      "Pappy": 7911,
      "Baron": 7912,
      "largest": 7913,
      "peeppeep": 7914,
      "center": 7915,
      "Box": 7916,
      "Golden": 7917,
      "tweettweet": 7918,
      "uggle": 7919,
      "daft": 7920,
      "Grizzly": 7921,
      "hoovering": 7922,
      "lamby": 7923,
      "squishing": 7924,
      "Babykins": 7925,
      "gifts": 7926,
      "snowed": 7927,
      "sneak": 7928,
      "Denver": 7929,
      "costumes": 7930,
      "Robbie": 7931,
      "explosion": 7932,
      "gathering": 7933,
      "totally": 7934,
      "frying": 7935,
      "English": 7936,
      "Crunch": 7937,
      "Kitk": 7938,
      "Disneyland": 7939,
      "stabili": 7940,
      "Jasper": 7941,
      "Simba": 7942,
      "Caleb": 7943,
      "husband": 7944,
      "invitation": 7945,
      "university": 7946,
      "slightly": 7947,
      "Ruldolph": 7948,
      "Cadburys": 7949,
      "Looby": 7950,
      "Wiggles": 7951,
      "elastic": 7952,
      "whilst": 7953,
      "Thompson": 7954,
      "Colorado": 7955,
      "Squeaky": 7956,
      "Ali": 7957,
      "Afr": 7958,
      "Cele": 7959,
      "Dzen": 7960,
      "Egg": 7961,
      "Eski": 7962,
      "Isl": 7963,
      "Lam": 7964,
      "Nur": 7965,
      "Ox": 7966,
      "Pam": 7967,
      "Pitts": 7968,
      "Spud": 7969,
      "Ze": 7970,
      "aim": 7971,
      "bree": 7972,
      "brain": 7973,
      "dun": 7974,
      "duff": 7975,
      "dangle": 7976,
      "fitted": 7977,
      "gth": 7978,
      "ith": 7979,
      "jing": 7980,
      "jer": 7981,
      "jersey": 7982,
      "lice": 7983,
      "mate": 7984,
      "mingo": 7985,
      "natur": 7986,
      "ots": 7987,
      "pis": 7988,
      "sz": 7989,
      "vic": 7990,
      "wook": 7991,
      "thr": 7992,
      "rer": 7993,
      "season": 7994,
      "serole": 7995,
      "haul": 7996,
      "aya": 7997,
      "begg": 7998,
      "ordan": 7999,
      "soak": 8000,
      "icho": 8001,
      "ldy": 8002,
      "wif": 8003,
      "wiper": 8004,
      "rosie": 8005,
      "raind": 8006,
      "raft": 8007,
      "shepher": 8008,
      "polly": 8009,
      "tem": 8010,
      "pleasure": 8011,
      "ppap": 8012,
      "trance": 8013,
      "parties": 8014,
      "buds": 8015,
      "blade": 8016,
      "firehat": 8017,
      "catches": 8018,
      "clothing": 8019,
      "diesel": 8020,
      "cles": 8021,
      "sucked": 8022,
      "drin": 8023,
      "compass": 8024,
      "dell": 8025,
      "Pole": 8026,
      "artment": 8027,
      "spra": 8028,
      "hatch": 8029,
      "binoc": 8030,
      "potties": 8031,
      "walky": 8032,
      "Chuck": 8033,
      "harp": 8034,
      "underwater": 8035,
      "mommys": 8036,
      "snaps": 8037,
      "lings": 8038,
      "blocked": 8039,
      "contin": 8040,
      "hears": 8041,
      "draws": 8042,
      "lorries": 8043,
      "postcard": 8044,
      "latch": 8045,
      "frid": 8046,
      "dustpan": 8047,
      "mary": 8048,
      "marker": 8049,
      "polished": 8050,
      "colder": 8051,
      "pinky": 8052,
      "Marcus": 8053,
      "hunting": 8054,
      "nearby": 8055,
      "flamingo": 8056,
      "dinnertime": 8057,
      "tummys": 8058,
      "riders": 8059,
      "joy": 8060,
      "sni": 8061,
      "patty": 8062,
      "pastels": 8063,
      "pressure": 8064,
      "mistle": 8065,
      "mistakes": 8066,
      "hopefully": 8067,
      "scrummy": 8068,
      "Rossy": 8069,
      "heavier": 8070,
      "rubbed": 8071,
      "danced": 8072,
      "plasticine": 8073,
      "teacup": 8074,
      "sats": 8075,
      "scratches": 8076,
      "Carwin": 8077,
      "mailbox": 8078,
      "nests": 8079,
      "Krispie": 8080,
      "lining": 8081,
      "Artoo": 8082,
      "Inc": 8083,
      "visited": 8084,
      "madam": 8085,
      "taxis": 8086,
      "sneezes": 8087,
      "Saint": 8088,
      "pads": 8089,
      "Wednesdays": 8090,
      "Julia": 8091,
      "popsicles": 8092,
      "arrives": 8093,
      "cranky": 8094,
      "mushy": 8095,
      "cheerleaders": 8096,
      "flapjack": 8097,
      "casserole": 8098,
      "bills": 8099,
      "Elena": 8100,
      "Hankey": 8101,
      "noodly": 8102,
      "hedgehogs": 8103,
      "cuddles": 8104,
      "sweaters": 8105,
      "bingbong": 8106,
      "mallard": 8107,
      "escape": 8108,
      "sledding": 8109,
      "whingy": 8110,
      "whinging": 8111,
      "cousins": 8112,
      "bombs": 8113,
      "blinking": 8114,
      "Fox": 8115,
      "Poppa": 8116,
      "department": 8117,
      "bicka": 8118,
      "origin": 8119,
      "barbecue": 8120,
      "newsagent": 8121,
      "frosted": 8122,
      "Mcdonalds": 8123,
      "tangerine": 8124,
      "avocado": 8125,
      "descri": 8126,
      "cigarette": 8127,
      "Isobel": 8128,
      "allergic": 8129,
      "bridges": 8130,
      "aardvark": 8131,
      "hyena": 8132,
      "Godzilla": 8133,
      "elderly": 8134,
      "Impy": 8135,
      "aspirin": 8136,
      "Troublesome": 8137,
      "oblong": 8138,
      "Eskimo": 8139,
      "Island": 8140,
      "Pittsburgh": 8141,
      "binoculars": 8142,
      "'.[": 8143,
      "Ame": 8144,
      "Bug": 8145,
      "Back": 8146,
      "Call": 8147,
      "Jordan": 8148,
      "Len": 8149,
      "Mun": 8150,
      "Mop": 8151,
      "Sara": 8152,
      "Stri": 8153,
      "Swiper": 8154,
      "Tar": 8155,
      "Tiger": 8156,
      "Von": 8157,
      "Valent": 8158,
      "Yo": 8159,
      "awie": 8160,
      "cit": 8161,
      "dang": 8162,
      "ehe": 8163,
      "evil": 8164,
      "hint": 8165,
      "jun": 8166,
      "link": 8167,
      "lumps": 8168,
      "pong": 8169,
      "rie": 8170,
      "scotch": 8171,
      "south": 8172,
      "vop": 8173,
      "valley": 8174,
      "wick": 8175,
      "wart": 8176,
      "wigh": 8177,
      "thery": 8178,
      "reel": 8179,
      "ances": 8180,
      "nod": 8181,
      "wea": 8182,
      "lefto": 8183,
      "yeast": 8184,
      "behave": 8185,
      "entrance": 8186,
      "cola": 8187,
      "likely": 8188,
      "chilly": 8189,
      "china": 8190,
      "alam": 8191,
      "oky": 8192,
      "caves": 8193,
      "nels": 8194,
      "math": 8195,
      "mackerel": 8196,
      "dya": 8197,
      "mass": 8198,
      "caused": 8199,
      "littlest": 8200,
      "teles": 8201,
      "rix": 8202,
      "carni": 8203,
      "mangos": 8204,
      "impossible": 8205,
      "index": 8206,
      "playtime": 8207,
      "tying": 8208,
      "among": 8209,
      "earn": 8210,
      "pss": 8211,
      "reds": 8212,
      "buys": 8213,
      "budge": 8214,
      "blin": 8215,
      "broo": 8216,
      "brass": 8217,
      "mmmm": 8218,
      "perate": 8219,
      "frown": 8220,
      "shown": 8221,
      "fireguard": 8222,
      "watercolors": 8223,
      "cleared": 8224,
      "Purds": 8225,
      "Purdit": 8226,
      "handprints": 8227,
      "ulu": 8228,
      "ults": 8229,
      "appear": 8230,
      "moms": 8231,
      "det": 8232,
      "rise": 8233,
      "spi": 8234,
      "mighty": 8235,
      "mushed": 8236,
      "extreme": 8237,
      "cutlery": 8238,
      "promis": 8239,
      "milkie": 8240,
      "stems": 8241,
      "Christ": 8242,
      "gruel": 8243,
      "zzling": 8244,
      "cure": 8245,
      "bbing": 8246,
      "dads": 8247,
      "poping": 8248,
      "spec": 8249,
      "Marissa": 8250,
      "dale": 8251,
      "screamed": 8252,
      "beeper": 8253,
      "cork": 8254,
      "flaps": 8255,
      "knob": 8256,
      "clues": 8257,
      "clickety": 8258,
      "farms": 8259,
      "feeds": 8260,
      "zoop": 8261,
      "slippy": 8262,
      "pating": 8263,
      "meowing": 8264,
      "paintbrush": 8265,
      "baskets": 8266,
      "fighters": 8267,
      "lands": 8268,
      "Empire": 8269,
      "forklift": 8270,
      "paintings": 8271,
      "screwing": 8272,
      "Jeff": 8273,
      "mirrors": 8274,
      "Dot": 8275,
      "spaceman": 8276,
      "trays": 8277,
      "Tots": 8278,
      "cockle": 8279,
      "sweeper": 8280,
      "visitors": 8281,
      "Barney": 8282,
      "France": 8283,
      "trod": 8284,
      "squeezed": 8285,
      "Green": 8286,
      "mummies": 8287,
      "tanks": 8288,
      "recorded": 8289,
      "hundreds": 8290,
      "Nola": 8291,
      "sucks": 8292,
      "north": 8293,
      "rattlesnake": 8294,
      "Miranda": 8295,
      "Holl": 8296,
      "groceries": 8297,
      "tubes": 8298,
      "meets": 8299,
      "Katy": 8300,
      "blinds": 8301,
      "stalks": 8302,
      "leaning": 8303,
      "shushus": 8304,
      "Erica": 8305,
      "stinks": 8306,
      "Skywalker": 8307,
      "gluing": 8308,
      "punched": 8309,
      "surfboarding": 8310,
      "answering": 8311,
      "chomping": 8312,
      "snotsnots": 8313,
      "barbeque": 8314,
      "Ruthie": 8315,
      "omelet": 8316,
      "newsagents": 8317,
      "Bramwell": 8318,
      "Ford": 8319,
      "truth": 8320,
      "collapsed": 8321,
      "flood": 8322,
      "Bilbey": 8323,
      "compartment": 8324,
      "honestly": 8325,
      "antennas": 8326,
      "weighed": 8327,
      "Beatrix": 8328,
      "Taylor": 8329,
      "thermometer": 8330,
      "baboon": 8331,
      "stewardess": 8332,
      "Nonno": 8333,
      "saturday": 8334,
      "Amelia": 8335,
      "Callum": 8336,
      "Moppet": 8337,
      "Yogi": 8338,
      "carnival": 8339,
      "Purditer": 8340,
      "Hu": 8341,
      "Hill": 8342,
      "JJ": 8343,
      "Las": 8344,
      "Lear": 8345,
      "Merry": 8346,
      "Middle": 8347,
      "Obi": 8348,
      "Ph": 8349,
      "Sw": 8350,
      "Sand": 8351,
      "Spon": 8352,
      "Vol": 8353,
      "Wan": 8354,
      "Wonder": 8355,
      "cul": 8356,
      "dates": 8357,
      "gong": 8358,
      "glid": 8359,
      "kane": 8360,
      "oxy": 8361,
      "rar": 8362,
      "tly": 8363,
      "tries": 8364,
      "wig": 8365,
      "yu": 8366,
      "hex": 8367,
      "hehe": 8368,
      "towers": 8369,
      "toena": 8370,
      "whiche": 8371,
      "wees": 8372,
      "doin": 8373,
      "becomes": 8374,
      "beating": 8375,
      "adjust": 8376,
      "cant": 8377,
      "cannon": 8378,
      "chute": 8379,
      "chili": 8380,
      "nack": 8381,
      "nastic": 8382,
      "alas": 8383,
      "caca": 8384,
      "caps": 8385,
      "usted": 8386,
      "formation": 8387,
      "unscrew": 8388,
      "dying": 8389,
      "plu": 8390,
      "whey": 8391,
      "sake": 8392,
      "saver": 8393,
      "ripping": 8394,
      "shish": 8395,
      "papup": 8396,
      "ques": 8397,
      "babysit": 8398,
      "shocked": 8399,
      "firetrucks": 8400,
      "bookshelf": 8401,
      "sites": 8402,
      "cattle": 8403,
      "sucker": 8404,
      "actions": 8405,
      "rounds": 8406,
      "pical": 8407,
      "picker": 8408,
      "birdy": 8409,
      "choices": 8410,
      "appointment": 8411,
      "drilling": 8412,
      "doorway": 8413,
      "depot": 8414,
      "death": 8415,
      "destro": 8416,
      "Police": 8417,
      "jud": 8418,
      "workmen": 8419,
      "workbench": 8420,
      "stealing": 8421,
      "spoke": 8422,
      "teddies": 8423,
      "sandal": 8424,
      "grader": 8425,
      "wrink": 8426,
      "jumpy": 8427,
      "Mau": 8428,
      "spear": 8429,
      "Marg": 8430,
      "dawn": 8431,
      "hiking": 8432,
      "racket": 8433,
      "pussycat": 8434,
      "snowmen": 8435,
      "isters": 8436,
      "Bells": 8437,
      "Beaver": 8438,
      "yoyo": 8439,
      "umbunder": 8440,
      "hammers": 8441,
      "And": 8442,
      "Angel": 8443,
      "persons": 8444,
      "halfway": 8445,
      "magpies": 8446,
      "Pete": 8447,
      "ambulances": 8448,
      "strips": 8449,
      "upsidedown": 8450,
      "Cot": 8451,
      "spills": 8452,
      "roofs": 8453,
      "apartment": 8454,
      "Harrison": 8455,
      "bedrooms": 8456,
      "Cornfal": 8457,
      "bendy": 8458,
      "Lea": 8459,
      "Devon": 8460,
      "rattly": 8461,
      "superb": 8462,
      "neatly": 8463,
      "Alan": 8464,
      "Cheshire": 8465,
      "treats": 8466,
      "paddock": 8467,
      "Franky": 8468,
      "buckbuck": 8469,
      "Baldy": 8470,
      "rattlesnakes": 8471,
      "charity": 8472,
      "warning": 8473,
      "ription": 8474,
      "gobbledy": 8475,
      "patients": 8476,
      "Amye": 8477,
      "yelled": 8478,
      "Dennis": 8479,
      "costs": 8480,
      "cartons": 8481,
      "dlydum": 8482,
      "apricots": 8483,
      "mucky": 8484,
      "firm": 8485,
      "flattened": 8486,
      "Suki": 8487,
      "stretching": 8488,
      "mosquitoes": 8489,
      "Chaos": 8490,
      "Gabby": 8491,
      "World": 8492,
      "Birthday": 8493,
      "wreck": 8494,
      "duhduhduh": 8495,
      "organi": 8496,
      "helium": 8497,
      "disturb": 8498,
      "ruined": 8499,
      "recipe": 8500,
      "jewelry": 8501,
      "including": 8502,
      "fleece": 8503,
      "Sergeant": 8504,
      "mantelpiece": 8505,
      "Carryck": 8506,
      "Deetoo": 8507,
      "Russell": 8508,
      "somersa": 8509,
      "McGregor": 8510,
      "Kitkat": 8511,
      "raindro": 8512,
      "describe": 8513,
      "telescope": 8514,
      "promised": 8515,
      "Holland": 8516,
      "Sponge": 8517,
      "oxygen": 8518,
      "toenails": 8519,
      "whichever": 8520,
      "Cornfalkes": 8521,
      "Ab": 8522,
      "Ala": 8523,
      "Bry": 8524,
      "Cami": 8525,
      "Celia": 8526,
      "Diet": 8527,
      "Ex": 8528,
      "Gree": 8529,
      "Gluck": 8530,
      "Girl": 8531,
      "Ivy": 8532,
      "Kar": 8533,
      "Kna": 8534,
      "My": 8535,
      "Nu": 8536,
      "Puff": 8537,
      "Rho": 8538,
      "Run": 8539,
      "Sc": 8540,
      "Squa": 8541,
      "amy": 8542,
      "auntie": 8543,
      "bzz": 8544,
      "cwe": 8545,
      "cwo": 8546,
      "chow": 8547,
      "cent": 8548,
      "dunk": 8549,
      "ells": 8550,
      "fen": 8551,
      "gn": 8552,
      "gree": 8553,
      "glow": 8554,
      "lab": 8555,
      "pant": 8556,
      "sht": 8557,
      "sla": 8558,
      "snor": 8559,
      "scope": 8560,
      "wid": 8561,
      "wished": 8562,
      "zu": 8563,
      "zuggle": 8564,
      "thon": 8565,
      "thay": 8566,
      "ining": 8567,
      "iner": 8568,
      "reins": 8569,
      "recycle": 8570,
      "llen": 8571,
      "vets": 8572,
      "wead": 8573,
      "lellow": 8574,
      "beater": 8575,
      "hoy": 8576,
      "soy": 8577,
      "rocked": 8578,
      "upright": 8579,
      "baalam": 8580,
      "nag": 8581,
      "unic": 8582,
      "mage": 8583,
      "knowing": 8584,
      "pel": 8585,
      "ific": 8586,
      "ifier": 8587,
      "teesh": 8588,
      "timber": 8589,
      "ountain": 8590,
      "shit": 8591,
      "pappap": 8592,
      "ucky": 8593,
      "tsk": 8594,
      "types": 8595,
      "parade": 8596,
      "parsley": 8597,
      "tucked": 8598,
      "coln": 8599,
      "worths": 8600,
      "weewee": 8601,
      "weeow": 8602,
      "choochoo": 8603,
      "greedy": 8604,
      "action": 8605,
      "cruel": 8606,
      "dete": 8607,
      "deaf": 8608,
      "Grandaddy": 8609,
      "exca": 8610,
      "crew": 8611,
      "germs": 8612,
      "provid": 8613,
      "antic": 8614,
      "Chic": 8615,
      "Chinese": 8616,
      "cheeses": 8617,
      "lasses": 8618,
      "undershirt": 8619,
      "wincey": 8620,
      "theirs": 8621,
      "ringring": 8622,
      "olden": 8623,
      "treehouse": 8624,
      "grr": 8625,
      "mention": 8626,
      "rollers": 8627,
      "wrigg": 8628,
      "dusty": 8629,
      "sunday": 8630,
      "daw": 8631,
      "bitho": 8632,
      "ankle": 8633,
      "itsy": 8634,
      "diver": 8635,
      "dibble": 8636,
      "teddys": 8637,
      "skid": 8638,
      "skips": 8639,
      "birdies": 8640,
      "dingding": 8641,
      "gardens": 8642,
      "splashes": 8643,
      "llamas": 8644,
      "unka": 8645,
      "jammies": 8646,
      "glance": 8647,
      "condu": 8648,
      "misses": 8649,
      "whisker": 8650,
      "jacks": 8651,
      "property": 8652,
      "suitable": 8653,
      "Peep": 8654,
      "Motor": 8655,
      "flipped": 8656,
      "pinchers": 8657,
      "spelled": 8658,
      "pizzas": 8659,
      "Judith": 8660,
      "ribs": 8661,
      "Steph": 8662,
      "scoot": 8663,
      "Inky": 8664,
      "dumps": 8665,
      "famili": 8666,
      "Mcduff": 8667,
      "passy": 8668,
      "scratchy": 8669,
      "ferry": 8670,
      "Edna": 8671,
      "puddles": 8672,
      "Small": 8673,
      "arriving": 8674,
      "crows": 8675,
      "chewy": 8676,
      "sucky": 8677,
      "skiing": 8678,
      "Monsters": 8679,
      "Maya": 8680,
      "Mayor": 8681,
      "reindeers": 8682,
      "neighborhood": 8683,
      "plasters": 8684,
      "stalls": 8685,
      "snoo": 8686,
      "spices": 8687,
      "coathan": 8688,
      "Reva": 8689,
      "Sweets": 8690,
      "eraser": 8691,
      "Granma": 8692,
      "wiggling": 8693,
      "Wool": 8694,
      "mainly": 8695,
      "expect": 8696,
      "Goose": 8697,
      "royal": 8698,
      "American": 8699,
      "moulds": 8700,
      "Truck": 8701,
      "crushing": 8702,
      "CBBC": 8703,
      "Nicole": 8704,
      "receip": 8705,
      "wrecked": 8706,
      "blame": 8707,
      "assistant": 8708,
      "flannel": 8709,
      "gambler": 8710,
      "pigeons": 8711,
      "imagination": 8712,
      "Delma": 8713,
      "Choice": 8714,
      "spatula": 8715,
      "refuse": 8716,
      "sample": 8717,
      "blooming": 8718,
      "conditioner": 8719,
      "Lincoln": 8720,
      "glory": 8721,
      "Beanice": 8722,
      "infection": 8723,
      "nickel": 8724,
      "Gingells": 8725,
      "fascin": 8726,
      "memory": 8727,
      "woodpecker": 8728,
      "Africa": 8729,
      "Celeste": 8730,
      "Nurse": 8731,
      "jingly": 8732,
      "throne": 8733,
      "beggars": 8734,
      "mistletoe": 8735,
      "Strikes": 8736,
      "Learning": 8737,
      "gobbledygook": 8738,
      "raindrops": 8739,
      "Knak": 8740,
      "Squamy": 8741,
      "cweam": 8742,
      "bithothay": 8743,
      "dibbley": 8744,
      "Ay": 8745,
      "Bones": 8746,
      "Bage": 8747,
      "Brum": 8748,
      "Burger": 8749,
      "Butch": 8750,
      "Cur": 8751,
      "Dino": 8752,
      "Fre": 8753,
      "Her": 8754,
      "Kitty": 8755,
      "Loops": 8756,
      "Loni": 8757,
      "Lulu": 8758,
      "Men": 8759,
      "Owen": 8760,
      "Orange": 8761,
      "Phi": 8762,
      "Ring": 8763,
      "Rusty": 8764,
      "Seven": 8765,
      "Tess": 8766,
      "Yuppy": 8767,
      "Yaya": 8768,
      "agon": 8769,
      "cah": 8770,
      "coug": 8771,
      "cmon": 8772,
      "cham": 8773,
      "eyed": 8774,
      "fum": 8775,
      "fitting": 8776,
      "gwa": 8777,
      "gunk": 8778,
      "kl": 8779,
      "ku": 8780,
      "mup": 8781,
      "pouch": 8782,
      "ption": 8783,
      "poking": 8784,
      "pimple": 8785,
      "tay": 8786,
      "twi": 8787,
      "tush": 8788,
      "wooh": 8789,
      "wider": 8790,
      "yuh": 8791,
      "zan": 8792,
      "information": 8793,
      "antu": 8794,
      "anteat": 8795,
      "heater": 8796,
      "helle": 8797,
      "noone": 8798,
      "whass": 8799,
      "whites": 8800,
      "seah": 8801,
      "meadow": 8802,
      "west": 8803,
      "weal": 8804,
      "webs": 8805,
      "doed": 8806,
      "dozen": 8807,
      "yee": 8808,
      "yeow": 8809,
      "hazel": 8810,
      "orse": 8811,
      "sof": 8812,
      "myster": 8813,
      "aday": 8814,
      "adult": 8815,
      "lik": 8816,
      "lime": 8817,
      "coons": 8818,
      "wanta": 8819,
      "irly": 8820,
      "rowed": 8821,
      "bacca": 8822,
      "babes": 8823,
      "alata": 8824,
      "capit": 8825,
      "cables": 8826,
      "bolt": 8827,
      "sheds": 8828,
      "forms": 8829,
      "wasps": 8830,
      "uhn": 8831,
      "unlock": 8832,
      "untied": 8833,
      "plic": 8834,
      "plunk": 8835,
      "poly": 8836,
      "polie": 8837,
      "peter": 8838,
      "pebble": 8839,
      "teria": 8840,
      "mantle": 8841,
      "fel": 8842,
      "fier": 8843,
      "chet": 8844,
      "shaker": 8845,
      "gathered": 8846,
      "bubba": 8847,
      "blades": 8848,
      "bral": 8849,
      "willies": 8850,
      "choosing": 8851,
      "handling": 8852,
      "handprint": 8853,
      "rounded": 8854,
      "remembering": 8855,
      "betcha": 8856,
      "drug": 8857,
      "biro": 8858,
      "chops": 8859,
      "dribbling": 8860,
      "turntable": 8861,
      "headphones": 8862,
      "demon": 8863,
      "finishes": 8864,
      "exten": 8865,
      "milking": 8866,
      "monday": 8867,
      "obses": 8868,
      "lasagne": 8869,
      "fff": 8870,
      "ffy": 8871,
      "grin": 8872,
      "grunt": 8873,
      "mats": 8874,
      "blackbirds": 8875,
      "bowwow": 8876,
      "cleaners": 8877,
      "breadstick": 8878,
      "footpath": 8879,
      "squamy": 8880,
      "barked": 8881,
      "painful": 8882,
      "sunshining": 8883,
      "scones": 8884,
      "scent": 8885,
      "dib": 8886,
      "direct": 8887,
      "listened": 8888,
      "corr": 8889,
      "flavo": 8890,
      "racer": 8891,
      "fixes": 8892,
      "brokened": 8893,
      "cyl": 8894,
      "toybox": 8895,
      "stuffing": 8896,
      "vory": 8897,
      "shuts": 8898,
      "owns": 8899,
      "ansas": 8900,
      "grandfather": 8901,
      "slither": 8902,
      "records": 8903,
      "Jolly": 8904,
      "atherine": 8905,
      "fights": 8906,
      "prices": 8907,
      "pills": 8908,
      "legged": 8909,
      "Firefighter": 8910,
      "collars": 8911,
      "sizes": 8912,
      "swept": 8913,
      "Monica": 8914,
      "flips": 8915,
      "softly": 8916,
      "oinkoink": 8917,
      "Michelle": 8918,
      "Fridays": 8919,
      "picnics": 8920,
      "magical": 8921,
      "borrowed": 8922,
      "rats": 8923,
      "rattling": 8924,
      "saltine": 8925,
      "seller": 8926,
      "lobber": 8927,
      "accidentally": 8928,
      "bonnet": 8929,
      "castles": 8930,
      "motorcycles": 8931,
      "cents": 8932,
      "bakery": 8933,
      "Boat": 8934,
      "grabbed": 8935,
      "swirl": 8936,
      "dedede": 8937,
      "scraping": 8938,
      "Home": 8939,
      "Louis": 8940,
      "nicking": 8941,
      "nickname": 8942,
      "chalkboard": 8943,
      "Leia": 8944,
      "borrowing": 8945,
      "Shir": 8946,
      "filthy": 8947,
      "Lovey": 8948,
      "sprinkler": 8949,
      "Robber": 8950,
      "Noahs": 8951,
      "udders": 8952,
      "rescuing": 8953,
      "nectarine": 8954,
      "Whiskers": 8955,
      "shoveling": 8956,
      "sharpening": 8957,
      "tatty": 8958,
      "Nicola": 8959,
      "babysitter": 8960,
      "common": 8961,
      "generous": 8962,
      "science": 8963,
      "advertis": 8964,
      "Terrence": 8965,
      "ctive": 8966,
      "moisture": 8967,
      "Sherry": 8968,
      "frustrated": 8969,
      "fossil": 8970,
      "Gibral": 8971,
      "Tallulah": 8972,
      "muddled": 8973,
      "sprayed": 8974,
      "friday": 8975,
      "Tarzan": 8976,
      "extremely": 8977,
      "glider": 8978,
      "Margaret": 8979,
      "Greece": 8980,
      "baalamb": 8981,
      "Motorcycle": 8982,
      "Woolworths": 8983,
      "Ayisha": 8984,
      "anteaters": 8985,
      "seahorse": 8986,
      "mantlepiece": 8987,
      "demonstr": 8988,
      "obsessed": 8989,
      "flavored": 8990,
      "Alf": 8991,
      "Bon": 8992,
      "Bal": 8993,
      "Clay": 8994,
      "Eli": 8995,
      "Euro": 8996,
      "Gill": 8997,
      "Jemima": 8998,
      "Kent": 8999,
      "Lee": 9000,
      "Lalas": 9001,
      "Pum": 9002,
      "Pro": 9003,
      "Wi": 9004,
      "ace": 9005,
      "amen": 9006,
      "bw": 9007,
      "cie": 9008,
      "cmere": 9009,
      "dandy": 9010,
      "ease": 9011,
      "enor": 9012,
      "feat": 9013,
      "imer": 9014,
      "miam": 9015,
      "mimi": 9016,
      "nen": 9017,
      "nummy": 9018,
      "oline": 9019,
      "puck": 9020,
      "soo": 9021,
      "sile": 9022,
      "slots": 9023,
      "scab": 9024,
      "yi": 9025,
      "yick": 9026,
      "inn": 9027,
      "inney": 9028,
      "attend": 9029,
      "nobi": 9030,
      "tory": 9031,
      "toward": 9032,
      "whining": 9033,
      "mey": 9034,
      "mechan": 9035,
      "dod": 9036,
      "sturdy": 9037,
      "kery": 9038,
      "beehive": 9039,
      "bestest": 9040,
      "oru": 9041,
      "ooo": 9042,
      "howe": 9043,
      "myumm": 9044,
      "allj": 9045,
      "adults": 9046,
      "cance": 9047,
      "gear": 9048,
      "rolly": 9049,
      "upper": 9050,
      "upsets": 9051,
      "chitty": 9052,
      "outdoors": 9053,
      "bathe": 9054,
      "okie": 9055,
      "cam": 9056,
      "bodies": 9057,
      "within": 9058,
      "tact": 9059,
      "unky": 9060,
      "sails": 9061,
      "timiam": 9062,
      "wobbling": 9063,
      "ceno": 9064,
      "shrun": 9065,
      "pac": 9066,
      "pause": 9067,
      "abye": 9068,
      "wouldja": 9069,
      "elu": 9070,
      "eline": 9071,
      "ilar": 9072,
      "ility": 9073,
      "ilbie": 9074,
      "trump": 9075,
      "bubby": 9076,
      "blu": 9077,
      "frosty": 9078,
      "fromage": 9079,
      "presid": 9080,
      "pregn": 9081,
      "stomp": 9082,
      "bluey": 9083,
      "waterfall": 9084,
      "waterproof": 9085,
      "handker": 9086,
      "droo": 9087,
      "meanwhile": 9088,
      "complic": 9089,
      "ggling": 9090,
      "chores": 9091,
      "rawring": 9092,
      "alrighty": 9093,
      "sorta": 9094,
      "sorter": 9095,
      "Grandmother": 9096,
      "fins": 9097,
      "experi": 9098,
      "milky": 9099,
      "stee": 9100,
      "steers": 9101,
      "waitress": 9102,
      "fishie": 9103,
      "spoilt": 9104,
      "darts": 9105,
      "ffice": 9106,
      "ringe": 9107,
      "camels": 9108,
      "hearth": 9109,
      "grum": 9110,
      "rung": 9111,
      "barge": 9112,
      "builded": 9113,
      "croiss": 9114,
      "crosses": 9115,
      "airkane": 9116,
      "digest": 9117,
      "spee": 9118,
      "speck": 9119,
      "booster": 9120,
      "graze": 9121,
      "grams": 9122,
      "uffle": 9123,
      "Rolley": 9124,
      "clipped": 9125,
      "belts": 9126,
      "snowballs": 9127,
      "cooling": 9128,
      "excite": 9129,
      "funn": 9130,
      "Beilbie": 9131,
      "mixers": 9132,
      "parks": 9133,
      "yoga": 9134,
      "slime": 9135,
      "pasture": 9136,
      "basically": 9137,
      "ranch": 9138,
      "distra": 9139,
      "shoelace": 9140,
      "Lake": 9141,
      "flutter": 9142,
      "yoghurts": 9143,
      "reaching": 9144,
      "suitsuit": 9145,
      "huggle": 9146,
      "midget": 9147,
      "flippers": 9148,
      "Col": 9149,
      "Como": 9150,
      "pocketbook": 9151,
      "motorbikes": 9152,
      "twuck": 9153,
      "twine": 9154,
      "flatter": 9155,
      "Doc": 9156,
      "trouser": 9157,
      "cuddled": 9158,
      "freeze": 9159,
      "Stewart": 9160,
      "smokes": 9161,
      "velvet": 9162,
      "Archers": 9163,
      "Incredible": 9164,
      "agus": 9165,
      "rinsed": 9166,
      "gasoline": 9167,
      "kangaroos": 9168,
      "burns": 9169,
      "solution": 9170,
      "fleas": 9171,
      "bonfires": 9172,
      "rrrr": 9173,
      "MacWh": 9174,
      "thumbs": 9175,
      "tweezers": 9176,
      "student": 9177,
      "Bobo": 9178,
      "steamroller": 9179,
      "Kenobi": 9180,
      "dotty": 9181,
      "Williams": 9182,
      "comfort": 9183,
      "Thunder": 9184,
      "squeaks": 9185,
      "otter": 9186,
      "beefburger": 9187,
      "billet": 9188,
      "Denise": 9189,
      "hahahaha": 9190,
      "Wooba": 9191,
      "appro": 9192,
      "escaped": 9193,
      "gymnastic": 9194,
      "hickity": 9195,
      "caramel": 9196,
      "fussy": 9197,
      "nectarines": 9198,
      "chipmunks": 9199,
      "Rosemary": 9200,
      "bickie": 9201,
      "simple": 9202,
      "similar": 9203,
      "tugboat": 9204,
      "Brambles": 9205,
      "Millie": 9206,
      "blimey": 9207,
      "period": 9208,
      "ahem": 9209,
      "Jedi": 9210,
      "ignore": 9211,
      "Zorro": 9212,
      "veterinary": 9213,
      "karate": 9214,
      "Antony": 9215,
      "asparagus": 9216,
      "seashells": 9217,
      "grasshopper": 9218,
      "anthill": 9219,
      "macaque": 9220,
      "Fooba": 9221,
      "tsair": 9222,
      "stabilize": 9223,
      "Phil": 9224,
      "hexagon": 9225,
      "plume": 9226,
      "papups": 9227,
      "Bryan": 9228,
      "Runday": 9229,
      "teeshirt": 9230,
      "excavator": 9231,
      "conductor": 9232,
      "Stephanie": 9233,
      "receipt": 9234,
      "Philip": 9235,
      "enormous": 9236,
      "yickity": 9237,
      "shrunk": 9238,
      "pregnant": 9239,
      "handkerchief": 9240,
      "MacWhinney": 9241,
      "Alad": 9242,
      "Bank": 9243,
      "Bears": 9244,
      "Brit": 9245,
      "Cru": 9246,
      "Dix": 9247,
      "Dinky": 9248,
      "Fish": 9249,
      "Hoo": 9250,
      "Hank": 9251,
      "Mer": 9252,
      "Mimi": 9253,
      "Night": 9254,
      "Pin": 9255,
      "Sta": 9256,
      "Six": 9257,
      "Tit": 9258,
      "Tail": 9259,
      "Wis": 9260,
      "awe": 9261,
      "baddy": 9262,
      "brighten": 9263,
      "ckers": 9264,
      "ere": 9265,
      "eighth": 9266,
      "fford": 9267,
      "jaw": 9268,
      "kr": 9269,
      "lumber": 9270,
      "mart": 9271,
      "nay": 9272,
      "pits": 9273,
      "sway": 9274,
      "spar": 9275,
      "slower": 9276,
      "soul": 9277,
      "twa": 9278,
      "vul": 9279,
      "wrea": 9280,
      "winkle": 9281,
      "zin": 9282,
      "zis": 9283,
      "oups": 9284,
      "inters": 9285,
      "invol": 9286,
      "theme": 9287,
      "atch": 9288,
      "heimer": 9289,
      "ised": 9290,
      "seg": 9291,
      "sear": 9292,
      "megran": 9293,
      "doves": 9294,
      "hail": 9295,
      "haired": 9296,
      "beneath": 9297,
      "arrel": 9298,
      "igu": 9299,
      "erato": 9300,
      "iding": 9301,
      "socket": 9302,
      "adill": 9303,
      "liking": 9304,
      "umsy": 9305,
      "eds": 9306,
      "rob": 9307,
      "chy": 9308,
      "babe": 9309,
      "loving": 9310,
      "raffle": 9311,
      "cabin": 9312,
      "cavities": 9313,
      "wasp": 9314,
      "mow": 9315,
      "molasses": 9316,
      "uhhh": 9317,
      "taps": 9318,
      "unload": 9319,
      "untidy": 9320,
      "mains": 9321,
      "poked": 9322,
      "pomegran": 9323,
      "testing": 9324,
      "saves": 9325,
      "tier": 9326,
      "tious": 9327,
      "wowie": 9328,
      "ribena": 9329,
      "shan": 9330,
      "paving": 9331,
      "hisself": 9332,
      "offering": 9333,
      "nicest": 9334,
      "shakes": 9335,
      "penne": 9336,
      "pences": 9337,
      "ongs": 9338,
      "hairdresser": 9339,
      "stor": 9340,
      "worries": 9341,
      "wai": 9342,
      "trainer": 9343,
      "floated": 9344,
      "handing": 9345,
      "handed": 9346,
      "crunched": 9347,
      "ulous": 9348,
      "birth": 9349,
      "greengrocer": 9350,
      "combed": 9351,
      "choir": 9352,
      "armadill": 9353,
      "folk": 9354,
      "stale": 9355,
      "headed": 9356,
      "Pokey": 9357,
      "spins": 9358,
      "homes": 9359,
      "hurray": 9360,
      "gergo": 9361,
      "produ": 9362,
      "saws": 9363,
      "walnut": 9364,
      "stereo": 9365,
      "lasso": 9366,
      "spoiling": 9367,
      "eler": 9368,
      "blowed": 9369,
      "schools": 9370,
      "hearken": 9371,
      "grating": 9372,
      "grumble": 9373,
      "shopman": 9374,
      "Mag": 9375,
      "booboop": 9376,
      "sunflowers": 9377,
      "beeps": 9378,
      "embar": 9379,
      "cords": 9380,
      "raccoons": 9381,
      "teddybear": 9382,
      "Rollie": 9383,
      "farther": 9384,
      "zee": 9385,
      "fud": 9386,
      "clumsy": 9387,
      "doggys": 9388,
      "achie": 9389,
      "slate": 9390,
      "jewe": 9391,
      "trips": 9392,
      "ticking": 9393,
      "guessing": 9394,
      "visitting": 9395,
      "awoh": 9396,
      "wardrobe": 9397,
      "candies": 9398,
      "feets": 9399,
      "splat": 9400,
      "split": 9401,
      "splinters": 9402,
      "purpley": 9403,
      "dissol": 9404,
      "starving": 9405,
      "pricked": 9406,
      "whisky": 9407,
      "easiest": 9408,
      "points": 9409,
      "tongues": 9410,
      "flipping": 9411,
      "dents": 9412,
      "bunches": 9413,
      "Coll": 9414,
      "college": 9415,
      "Jebba": 9416,
      "pocketknife": 9417,
      "Noos": 9418,
      "tallest": 9419,
      "bibs": 9420,
      "imitating": 9421,
      "freeway": 9422,
      "voices": 9423,
      "horned": 9424,
      "meatballs": 9425,
      "borough": 9426,
      "cockat": 9427,
      "cocktail": 9428,
      "Leeds": 9429,
      "drumstick": 9430,
      "combs": 9431,
      "pitcher": 9432,
      "agh": 9433,
      "Albus": 9434,
      "calcul": 9435,
      "sym": 9436,
      "system": 9437,
      "bonus": 9438,
      "rascal": 9439,
      "Cheer": 9440,
      "crawled": 9441,
      "event": 9442,
      "students": 9443,
      "lifter": 9444,
      "nibble": 9445,
      "librarian": 9446,
      "lungs": 9447,
      "buzzbuzz": 9448,
      "trict": 9449,
[...]
